// Local storage

const DEFAULT_BTC_ENDPOINT = 'https://ancient-crimson-rain.btc.discover.quiknode.pro/c268fb026303ae8443f785200f2ea4b82f0082dd';

function setBlocksApiEndpoint(endpoint) {
  if (isNullOrEmpty(endpoint)) {
    localStorage.removeItem('blocksApiEndpoint');
  } else {
    localStorage.blocksApiEndpoint = endpoint;
  }
}

function getBlocksApiEndpoint() {
  return localStorage.blocksApiEndpoint || DEFAULT_BTC_ENDPOINT;
}

function setModelInscriptionEndpoint(endpoint) {
  if (isNullOrEmpty(endpoint)) {
    localStorage.removeItem('modelInscriptionEndpoint');
  } else {
    localStorage.modelInscriptionEndpoint = endpoint;
  }
}

function getModelInscriptionEndpoint() {
  return localStorage.modelInscriptionEndpoint;
}

// Remote API

async function fetchData(endpoint, options) {
  try {
    const response = await fetch(endpoint, options);
    const data = await response.json();
    return data;
  } catch (err) {
    console.log(err);
    return null;
  }
}

async function sendBtcRequest(endpoint, method, params) {
  const paramsStr = `[${params.join(sep=',')}]`;
  
  const options = {
    method: 'POST',
    headers: {'Content-Type': 'application/json'},
    body: `{"jsonrpc":"2.0","id":1,"method":"${method}","params":${paramsStr}}`
  };
  
  let data = await fetchData(endpoint, options);
  return data?.result;
}

async function getLatestBlockStats(endpoint) {
  const defaultStats = {
    avgfee: 10,
    time: Date.now() / 1000,
  };
  return await getValidBlocksApi(endpoint) || await getValidBlocksApi(DEFAULT_BTC_ENDPOINT) || defaultStats;
}

async function getModelInscription(endpoint) {
  return await getValidModelInscription(endpoint) || ___default_inscription;
}

async function isValidBlocksApiEndpoint(endpoint) {
  return isNullOrEmpty(endpoint) || await getValidBlocksApi(endpoint) != null;
}

async function isValidModelInscriptionEndpoint(endpoint) {  
  return isNullOrEmpty(endpoint) || await getValidModelInscription(endpoint) != null;
}

async function getValidBlocksApi(endpoint) {
  if (isNullOrEmpty(endpoint)) return null;
  const blockId = await sendBtcRequest(endpoint, 'getblockcount', []);
  if (blockId == null) return null;
  const stats = await sendBtcRequest(endpoint, 'getblockstats', [blockId]);
  return verifyBlockStats(stats) ? stats : null;
}

async function getValidModelInscription(endpoint) {
  if (isNullOrEmpty(endpoint)) return null;
  const inscription = await fetchData(endpoint, {});
  return verifyModelInscription(inscription) ? inscription : null;
}

function verifyBlockStats(stats) {
  return typeof stats?.time == 'number'
      && typeof stats?.avgfee == 'number';
}

function verifyModelInscription(inscription) {
  if (inscription == null) return false;

  const { classes_name, training_traits, layers_config, weight_b64 } = inscription;

  if (!Array.isArray(classes_name)) return false;
  if (training_traits == null) return false;
  try {
    loadModel(layers_config, weight_b64);
  } catch (err) {
    return false;
  }

  return true;
}

const ___default_inscription = {"model_name": "pfp_classifier_15", "layers_config": {"config": {"layers": [{"class_name": "InputLayer", "config": {"batch_input_shape": [null, 28, 28, 3]}}, {"class_name": "Rescaling", "config": {"scale": 0.00784313725490196, "offset": -1}}, {"class_name": "Flatten"}, {"class_name": "Dense", "config": {"units": 10, "activation": "sigmoid"}}, {"class_name": "Dense", "config": {"units": 2, "activation": "sigmoid"}}, {"class_name": "Dense", "config": {"units": 4, "activation": "linear"}}]}}, "weight_b64": "SwVRvRG/KT2OK0Y8xbn9PRs5Rz1YdV+8tAltvb5Crrw9lJW9GgHEvJ6vvT111Ok9WSSuO3SWAj5WC289fxG2PeHPu70iC5c9jZCAPFWSw72fJ8G9lP3PPduZaT3YJiM9Tq3FPbUgBL3fH6e99pQSPXE5Tj3BtzW9ZLMsPXcfuT3HCk89BLcLPYyzczwZvM69+gsgvZA4OTwqipI6QP4jvAaRDz0tF5E9F+MyPeHVXDy2u668ZGTmPTr8kTuGUEY920DHvJDYCb179CW9K6rWPWZW0z31yvA83Ka/PLVgBL3O6Wu9J4RvPHCrkj2Piw49XJGNPFNY4j2kuZg9jXYCvMtBXj3n0gG9mAkqvK+0SD0D5Y89zpSKvMCcqz01zj8+9gSfPb8tiD1Dcoq79M8APrbukb00X1E5UwusPQKnQ7zASgW97UUGPhDlOT7mbb88k8W9PE3Ejb0XEbG9TnpKPZF8lj1Yr6k8VvhGPGgmdDw/u468x2hcvQwZW7stOma9FciEPCi1rzy/EQI9arPAPEgIsT1svtg95B+aPDethT3zsyC9s74TPsUAkjtxZ7c8qw+JPcKiFT3DWdu8Ot7vPZtXkj1kw4c7sWbuu9xi472AJcK9fchBPAwVTT1QA8E8J/pnPUjyBr2hrd28aAWuvay3Er34KEa95zSSPcEmYr3Pwik9BwNXPRfRED7a1PY9qiI3vByRQDzhjMy8CC4XPufAdzxHmpG7DK+bPEJPr7uLotC8n8+DPcnk/T1oGEW9+SVRPOqisb3ZW2A7/WRHvSKYlz1uQIc9h4+avZWCdT1iJ469DTnXPNrXJj2GT9O8DDyHPLVtZz0X7qM8nIXQPPCmoz3f0vY9pnJTvUi6yT2yuCg8wQABPnG9VT3A7Zk9lU6DPSBrYjw7/cC997IAPj9HATwR+Bu9CMHCvAsnKbz8Kmq6x10EPRGRZjxE3yC9eZG7vdjqhTuAH3q80BO2vKlh1TwYpyS9HGRZPKYOgT2Lyj29JtuBu195lz3lCKc9qm+JvWfGHT2uZai8sYZYPqbDrrtSCjU9W+omvfIv2rzI4/+9X9H7PbEXjztmJGW8Eo6XPWfXPzxQ3P87K152PJvNNb0t1JO9JsHBvVz1vjxRtQS9FVeBuokiDT6YpJK9i9JZPcHnkzx2s148Le+dvSf8zz1slto9xlM8u1y4KT1/6pu8UoI8PhLmTz2TDwo9lCesPPpy9rwv2v29gjffPdKggD06We47cmSkPVxOljxOHGQ85XN6vFQF17vjpoa9NKTyveZvXj3qRXC9bHxzPCLYkT1ND1m9VQBnu2OsOTzzNhW9gDHavK4FOj2PSkg+26KAuljb6D1IXE88l2cnPpPGjjsxV4M958Zrvb5/z714W2292n1FPn1R0TxvC4k96X3HPccCGLvaOEy9A9z5u8OVTDu4/Xy9+OTyvUn1sD22vAa9/NnIPAklAT4Qije9HaGdPXWOPTyDvjC9gwrUvLKvdz1i0909Q1UuvRFMhj1hQnY9YyMvPsx0ojzYeO09QtlmvRpu971z+7W9lAIqPscaSj3wni09aejvPCxqzDy7St+7zPQjvKSZMr2ncS29c//3vbWU8D0ZYZK8b0UHPW8I3D3Rhgi9I8T5O6uwhT03fvC8kn2WvUkzkj1pPyI+NTbcurD8uj055iw9eIY4PiQajz11zfY9dOQPvbEnQr3syuO89zQ/Pgy7fTzXG7Q7FqPePJO4Nr1BeI+8B49nPE+WSrylqrq9j6vGvTxcGT3uJIu9E8tEPQ1Q/T1018G8ChQrPcjrQT3ODaa9MnXJvapGtD10gx0+7WKIvVGQxj3bXTU7mMwuPu8XJ7w5s4c9OG87PObAo71WbKS93O0/PpDMQT1NsH09WRwgPP73l7ycdcw8kwsrPYP6DDzXXlK9EP2UvWVm6z1WD1e9OiBZPWautD2ur/O8rqoAPaV8jj0MRAe95MOEvTGNiDwcHTg+eQEKveQ3Hz7AvEw8UNBNPoMBFD2H6fY9HhEAvKqdL71ycW69baE1PnvhLz1n5rM9tFM2Pbg2L70WK+Y8rBTEPMD4gLw6LJ29pVMtvabW4z1MES28QhSsPX5bxT1Nb5Y8iPFVvFbCjzxYYGm8OEOYvRCUTD2grzI+wDMlvWdFnj2dAVg88PgePuX3lD1NVkc9+PQmPPRz+L3WXLe9WaRFPpflw7x0oUE9LReoPQ+kcL0Mi3W8NUJ6PXH5LL29ImG9LxDgvcWgCj0/AWS9eA7RPTwLEj4UHSq9Uhm2PDtRjz2piIW9fCDkvVQvzD3k9kA+zA1Dvfe53z0bn5M97RZFPieWmTzFIt09+PUOvUbfpr2voqu9pzjePaLlgryU85Y8j8CYO253K70hYwG9XCAvPb6hLT37zD687umavaRBWT2gw4C9wmoXPc+yFT4vrbu7T4/PPKnUmzxFXGg8yU8AvVLIYT0kcjM+OQ+evaNPjT0eQ2S89YF4PgnpiD3vq6A9IfG4vQXgmr20lKS9QysjPtDf17ah+Bs8KyDLPHCZSTslnWq8HKw5Pc7HTL0gSXG9fsXCvewAKj1ypZa8RiKhPVH75z1C8hu91PkNPbQynD3hiaa7yFFmvUMpGz05NyI+mZNUvZsQiD3zfIA96KJpPi+ogz3RLpE90jsjvGs2b708co699LYuPmv027zZIzk9TQ+xPagTML2uvSG9mOiwPNOdyzxUbba8JnkDvhCOsz0Pr1u9I1aAPb4Nyj2mY9m7feTCvL2jxz0vBk88qeqcvfO8cD0YcUo+51dwvRvT1j3l7Cs9mndXPnUugjyS38w9UKIpu/1vu71n1VW9WwcWPjRmyjyFAjc9cI1APS+H6jw5VKK8U7qnPf2KATwh3y69h5/9vaEShj37+f+7gtysPL8nED7fM0e9sM9ePfSagD0z34+9vcKBvWB1Ljx3V10+EMSNvK1Hvj0C06k9LmI7Pj+BmjvXNBI+WYdtvVt/A76QBMq9d7MjPvFZ6bufsqg9q1WQPPdmZr3vQ3i8+R1IPYCBfLwiCly9EudtvQ9+Tj1jBvm8YtxMPX3slD2URYe8H+/WvEvmyT21iDi9WciNvbaxDT0Csy0+9v+UvC7AJD5xyag9k6JRPogeGT1GhgA+zMrBukU8Db7bnSC9+gBDPpLSlrmLRFU9JaixPfcBib1jABG8FdNzPXH7TDxgihO95HeYvSjskj14rJu9X83vPGbEbz36bl29ekNbPepsmD3ix3O9Pm6gvdu9yD386hM+GwKpvT0OmD1nS068QMB6Pkq+uzxhyJc9tAkjvdbf9b3OaNO8K/77PTwGZbpvVl08G4zmPGNdT7120YG84787OzX5OjzIZJq9VaXnvEvgmT2g9ya9MpATvSXiiT3Jh3q9cFGxPTsZ6Tx7yIe8n/EOvRucGT0GWHA9TxosvPnA7TxEcWo8EHcvPpU53Dy2rq49tdJOvUP3fb1jJ9K8zZUoPs9p+DxTtlA9D2gnPejIdr2hLI87NuUcvAwQ1Twr6rK8m+cLvQ6HFT0Q/0C66fWwPI/+gbwyb6u9p88rPBE+3Tw24wk9st30u17goj2fWyY9jIIvPCsVOjsA8iC9/iU6Pn0rOz0kxIw8rsaDvLMCLL2N3mS93a8OPv9JGz0s1ei8gPGuPFVJgbwi3Q08iPegvGKZ4zuI5gY6BvoKPTDYJzw9bsy8wxKTvbFTJbw0aKe9ubNgPae8oL1CQpg9If+nPByeSj5/NtQ622oRvQM2urxTKXu98GxbPR4Qqj2s44E8WCHOPOTx/jyvdEo6hVJpPXvmGT29wYu9dc99vZID670TmFW9zAbavEjMtrtTAls9rU8mPFOJqjwN1bg7APIlvcmaLz1k3269tv5kPbb4sb0lWKQ8nM4WPRpW+D1XaiE90OBtvGOZTr34jZm9S/fwPRJTPTzIGBG98oTSO7ZMcD2Ybf+8FtHnPbQo+zzJR5S9eSx7vdJu0b3uVgu8rcKWvPyEXj05ho09rHILvRPoBj11xSC95dw3vS8rtT3Guzq9YqzvPDT7gLtM/8S89qwHPQF0CT562zE99jG/vLGSxLwkHg29xy2yPZ4viLwchQu8BtSZPZDhL71Y9ze7kQQHPl3PzDwON9w7gtHGOzGOPb04o4q9VEE9veKVDj2Aqo08RjZwvMJDdbyuqaW9T3FKvWEd3DgnuLW94SsBPYsFu7yIlOc8UGe+vK9bHz4bsws9PAJEvBFGCrzTef68qjCrPSNNkjsFYgM9wGXNvGEJHr2qv5W8rlmwPZFLuT25sye9eXF5vXyayb238Ya9duCquvpYuT1mr+I7jeAlvCcYjz15Uqa9w6MoO+5zhTxGc0y9b+ZvPUhTDj280qq9/16svflK2z0+eJ098cxRu3vpzz0/u2Y8CVw5PkzQpjucg5c78EYIvRjfVb2GuIW9U8MTPp5XMz36tBk8BaIEPctdGbvZ4W69nprEvJoctrxQZQ49wHUEvQgMrj1Z5Am9KnEUPdWWbj3e7QK8YMnUPECQrryHw4m9HHEivccSsD3HK+g957QjvWwuLj232sa8v9EkPuhFiTx1NEq8FACfvZkKg72cQre99yqQPRhyZT3wuGw8lBIcvfM06Lsx2mO9t/BHPdOv9byBzVe8SmVqvXg4+zxm/za9t7NcOgtCxrz1wiK9WPK4vMEMyDx+eAY9ovdKO8D5mDzjOSE+myo4PWEvlD0X9YQ7ZIWlPeRA67wy31I76xvwvGXDTL0/a0q9PTGnPVZjMDuRji29627GOzcaIb0N3zu97dmHO575tTxag7g8Mea4O++8NL3598W9lzmxvTZnybynMYO9+7a2PfjvdTx7uEI7Ye99PXCK4T1AQrU9PkeZvJU6xLwOXvu97nIPPuGNYLwxh4M7NCajvBaohD3h0b+8oOjhPCs5Zj3YqIu9W6/0vPtHyryq79466JzJPKpuTrt15ZE9SW77O/SeYzyyRCS9u+4/PP2l/7vXKLq9CIWLO6sKzzyQj6Q9i8gsu4CpFj7DoYE9sJdQva2eebxtPGa9A5sRPlOQmz3DuHs91K8QPSnJgLwNRPU8/8isPZVBZD3jtwE7FDPBPMO33LwuGtI7RzTBvCQ0HT3wdko9xwzwvGRgEz1eKqK8q+ecPNtqZzxWrYa9E6MQPQrWWT0wh708w8mHvD2adz1eP3I9A0NGvWdOmz0SCM+8Mfg2PoGSWDrKA009rNKZvAliaL0MrOy90RKpPa9pqTvp/RI9bACCPa0nl72hCq08A0knPaY1JT0vs487SOzbvaLIzj0PMwS8D999PYHF7z0B94C9VA+/OkUuST1mGIo8GCg6vTwB6D2+PRM+ITkmvU7ywT0ULAE8FPo/Phl9mj3Qw908nyMLvEpnjL1XXd29VaU+Pq6ZVTxcJx08INSwPW28fr2imRO9+dS6PHHOSb3MjCu9mGJBvctOYj2zreY62/OlPRgjjT1U9sS899+UO8YwCj3A0568GveNvVALBT0hPQw+gRCzvfAHGz50ufQ549hXPliZ7Dx5JYA9WRMKvT/n6L0HEcu9FW5KPhNL1jyyOYc9ZzmZPfrYYbzhY6K8fNKrPLxwHjzaeUm9ijV/vXHfmj3ow9m7M85XPWJc1z2v4Va9PJwvPReJ/zx1VWe9EFqHvWPagz3mshc+EYSfvSWcvT3CX7k8aSdNPlWOe7sPLmc9VMRYvbSOzL1Idp29kVUrPqzGOj3I9Hs9OKqjPX0Yhr1dGZY8UkXYu3PJB73h+TC82y7YvQbMXD3RkUe6oSavPVXEmj1tlrE8rie6O0RRLz2m8pK9Dns4veJmlz1WSQc+3AV3vWxlgj1/sDI8ruVSPmruojwATKM9ax1cvdjbjL1gBZy9yq0kPkRLyjxoirg9Z9lOPVDY+jufDnU8b716PSK3/7yhibi9GI9HvbuE3T0YHIy860+kPUgFkT15oh29Q0lQPMuauj1+rqW9wTj2vfbcyD05QgI+VC8YvBbz8z3sqAE98bNLPuJ/nDs7wqI9ksmpvT+MAL50w4O9vlDcPQC5vzvWWZY9juotPctArbvbBdw70DNXPT5V9LuU4ZG9GIj7vcDAhz3kO1e9rksGPTr4AT57VLu84bfRu2f9qj2MzLm80fXBvS3zGz1y9Ok9udCvvMmIXT2Aa0a9nrEiPnMLlj3nTzo8uw/svHvjfb3/mva95jgLPgeGOD25NEw9pcBLPIYLg7xi/HG81PQBPUcInbxozrO9eqxyvfQozDv6XH69LwVOOw7Irj0srZi7JkRNPaLSiTzTobi5+eYovZKePj0WnbM9RksjvUUGfj3VILe8e6EwPumiUD19SXI9Py0AvWWsOb2RN469j7DJPUWrNLpUBK+8b6xHO2XaDr3EhSg9YhP5vCJBpbtKa0+9BdULvf3WKD3oDxa9YZaaPN2TFz11/Rm9FZNaPVwJy7lP4Ge9bK6UPLFw/j1XS1o9Rt4XvSSZtzvd+469k7cOPrHPKTxRXMk8BFAAvUZFGL0atnG9eykIPjzw+LysR/+8dvkMvWALpb1c7mE82Pw5PCY30rx27z28z+1CPHKKNb3zVoq9OIjBPGVQGz11XH69yd3OPZ8UQj3kTAG9ozezPLNQLz3X0QY9UBVIvU5SJT0L2Rm97uLjPbx2hz1DGQ099OmpvCasg71nHa69JBucPQglDL1TeVG9ob2UPLYic72O+KG8suNWvQ51jTsBAJo78v2TvQtzOzxg7q29g8sPPX2zGTwCbZS9zL5bPZtVrDxPDE28ej+Rve8irT00gRw807ZjvfWo7Dvcgl68Nsk3Pg8p7z3mlTs9IYuPvX3+PTx1zqq9kE/BPdcdcL0EARM9EkMTvdn2ub06X5W8bkAbvcKWEj3hWj+9MHmbvdT2PD3g65O8zNJJPe9rCz04gWM8BUA3PeeIyzsPl4S9mSWhveMRdjxTd9Y7aE9AvZ1DmT2icde8q8fzPQZorD0kJNY8dn4PvZBoXL33R5i9wP2KPctTXL3BfRy9GgTuPH9ZGL1+/gE9XiSIPZJ6lTwWe3C9SbtHvd8Ez7xzqMy8YyTJvJQjKj3Qua27bUG8PUcIrT0z/0C8ITa9vW7VgD0NXpI8xh2ovbKOSD3QvxM906NPPjY2Ej0ZPOE83pKsvRYK7r182pq9V4VpPYNsC7xIvDk9VUJgPXbVkrzLNYw9Yh+ePVQlu7sSkLy9ccazvStlpTzzImm9Pk58O1vblT0svpe7wuxHPeHGKT3oSFS92ZH6vdFK9Dy7feY9rcQavT6n6j0K7648hporPhO+kj1tLp09lKtRvdtaxL0/ADu9IQIYPvt6CD2alVG7LnmLPcYWXbtiliC90LnRPPVzMTw0y+e8lk0QvhIetT049YO9/Q+GPAc3nz1lysw8BdWAPE4LsD0YSp29AHTLvaYJcT2c7Ak+9xghvRKUAT4ApYU8IiY5Pk5Joz2dFAc+g3KzvOrzxb2VDBC+3rvmPa6AFj1PanQ8L3FgPRmpBj0uvx09cneHPbIPtLzgucC8xGANvRLEmT2BrWA8Z++EPXuqlj0N++O8epvzPAKAmD1eBzK9OQZ0vVaqtz0DMOw9Pnp8vQVSEj643FQ8gwpaPjy2YD2ptcI9Q4bcvAP6kL3nRa+9qXA1Pjkm6jxc1eM8MovkPVzKwryiHlK9LxCNPRNdyrwAjaa9AoDsvKaZZz2J8AC9GRaCPbbaFj4hY547xscBPJBMgz2hB4G9QBwevYHRVT1VtvM9lcWWvTYYCD5uLCo9jrBcPiIAkD1r2jM9dTU9veCNf72v0Ta9xKAmPnvGbD0FJMU9a8sTPXQQ07w4voC8OO6zPbkph7t5z5y79AInvdvRYT21mJe90pEGPQEYCz74klW8Uw9TPcIT+jzIqEy9r96HvYnUCz30j/Y9uTMpO1Gc4D2Hz3A7wMpcPg9eaD3FQdY9u3UqvfIw973RU7q9O/kYPtJfzzwPxKA9/zxEPfEBrryUeMC8Gh2sPZ19Vr1bIm69InXSvdUj9DwqWAI6Zzs5PRPM9j240cC7Z0qtPRjOXz2OGYk8tS3bvXWZnD05E8Y9VCqCvSrFYj35I547PPE2PlMMyD0unrU9Qm0YvFW72L0WCOW9U/U0Pv2LNLwWWFU99KSJO1/317xd4pq7QmaFPNqE/DtnE2y8ruG6vbii6bunSYK8OronPZSaUD3T9BW9UP1iPY4hpz1qoNq8D1fXvCUk7z1m1l492aSUvf1UqDzOR928xC0lPg4YyT0s1J08ZooJPQJjpb3kvfO8Sb2NPW5B0Dw8OMC7qUEePduYXL1RcX28eOi7uwIHPz1sjzk4XdsAPdYybTwnViG9cXmfvbMLrjx2W0e96QhuPfSVjb06dw09p+AAvGSwDz5Lc1s9nra0vdDa+zt1mru96pKSPRNqvT2/Vwa9RpcOPUCS1rwxYze9Hy1qPaT90LrS4Ke93pPhOjnmib3m5eM8GADhvKWlVTw7eZM99GxfPYhD9TxA65C9hPiXvWRsd7zpi769d/rvOeMyg7w08fC8NeZjPRVWUz7SALq6ivnJvB05N7zXjYC9bjEAPuTsOD1nGMu9gBklPBd6Lz3v4q27Pf60PTUhpj0mNsO9xdSAve8w8L07Nxi8ADUFvsWZPD2LQVs9GcLFvIA+Pzs9UDy9gKtAvbxmDbxSb7m9RRKwvKucQTybZTU937AGvX4ZvT3ZlXk9eqG0PIi3iDy2BcK9mREcPvU+qbxidZ67s/4Fve4WLb38bgC9eT+oPWX2tj3Kn4G801PFO36Xrb2brDK9+8lVvbJlmj1nylQ8rIRdunp3Rz1OiMG8f6XSu7F5yT0VBcy8F2xZvCebA7y/CR87n1QjvfapMD0lJOg8irtqOATNTT29Z5+85d/WPRYfkT1YbKc6a1uKvTQ9GLx0lyu9KUGhPY8wXT2J08A8tBbZvAdZO73BRgG9z5nDPFwW2DwMCjA90oeJvYd1Uz0ZzQ49vLiOPdYybD2maE69oo5pvGZ4qrzO7Og8f6EEvYnnRT3/Fy0+r3WUPM9ORz35Tay8I5wGPkkvdzy05rw7BwTFvDJEpr1+EaO94Q39Pf3jDz3Mgam7z/kwvf40yLwCjLw8UbqJPS7cyDz+BFa6VmuDPd172zxbe667V6EAvTb7FDynaFu9N7yEPXu4hrxKeTm80cavuyg6ij31ZRk9yr8wvQJ8b7tdVSS9WpqtPWEVkDxae1S8XGsFPQcMSj0yIUG9GT7CPVZzHT0Sn6a5j/GxvZfV4L2mrae5v2RIvYDcETYC02U9xbBrPP/pT7teAMa9oer8vFxiTzxLA6y8mPlHPdqAEb1dvTY98t9gPaeJsD2facw9Cy49vLqc4ryNmZe9CXknPsJ5Lz3uLOg6XeQgvNiY2zyx7mC7ZPAjPeOalz0DOZa9CwIivXkWNr2cIEI8aVmQPHVk6bxDBEY9tgunvcsX1jza3GG9GgAUPf6+3j1H+vq7+o0qO3aa0bt2E9i88XQ/vZ3N3j1FycM97txdu+mLHT3CZku8nTxuPm8E5jxCdEM9R8kIuwZCPL3WAEq9WQ+DPSE3aD1q63q7pDkqPdIomr0TgSE8LPoNu58c2Tz4J5C9cqhZvUjBcj2mCpy9OxuJPRpthT3vuiS9GDepPKXHJbygHSa7FpjEvY6awz1KWBU+W0qdvQIcSj1IsY682IBWPsWOVT3JT109s5oMOxGUYL2YFbS8OAkxPss8cDwXPbM9Xve+PeS+VL2vBKw8yldZPdGdUTy0VyW9GoL0vdSggj010927kag/Pd/VAT5UjEa9n6jYO9RXaD3DIA69WV1qvTVFRTwZpgc+VTgVvc9FsD26mD888JdoPhrmnD2WX2Y95RkqvVPiV71xuSG9LCE7Pl/gq7zwxjU98yFjPV3kYzqHOGY88qTBO0pDLb0BTIG9FKcFvjLUST3uADG92T3vPPIFET6sgB69MSMoPL1qmj3ea5+7uurBvFaxFD07e+Y98RBCvYbRlT3AFjI9EvBWPudlxDtgKq89SMKLvG048r268Ba9LGk+PnYkKTmnp889BH2rPHVYH72W5q88zTUFPacDEjw74Ke9qiEAvkPx1j1CooS73khrPWe1Cj75wny97/KKPOj6WDyNmRy9ySZhvZsHcD0wBtU9we5jvGUqwj0A/ii8ySdAPlL3yjypYwQ8y2pjvSda373fWLK9HnMaPll5kj3gFno9HtyEu+LaGr1zjRk90ASxPPKuoztMBEC9sumYvVyeprtP2r696saGPUFSuDwSJZK92KNpPOqJaLxtOBK8YykIvfRW3j2sCa89/vw2vWbXFbz3f/u8wLoVPvoVtj2m2jQ9JY3EPJEcz7yQ1Mq9j5yaPfVJIb0QJAC8kQYmPDd8h71T+Y09kBUGPVKGab3G6he9Y+Qdvc8Ei7z4rcW9LJBrvfpMSD2PDAm9YQK1PTdu7Tw+MfC87voqvElS0j1JMY48YYr6vC9wkrxJ5pS9nzajPVbxCj3SkYU9s5amPDyJ+zsnIGS8OOYrPevVrTyNyIS9cLUYvT+26rxm7ug8cY6HvIKnTz3asCI996UivG/IB70jrGe8sihQvWi8d73+g0y9ehHcO9Y8N7z+GC099cdqPL/Nyj30WHU9DysMveu+oTz5Y4y9H8b3PXC+MLyrKDS9VOhuPaRm4zynShY95UA+PNuN0z1QQy88yRCBvTGt9r1BUtU8UyHqO9cD/T2jY+Y946ZrPRTkcbv1HNQ89i5MvTwCeL2cqP69Gy4gvTOHi7y+yfQ9fxi6PSZ3Gj6/Wy09WVinPRgeUbomz4y9ZfmqPeuytLxyZ5e7in8iPsazaD2R9Eo9D+KyPO8aNz1yUy+9+VBdvc67sr3Av3G91/lpvIQ8tz3qNAM+gjvIPS3ZDjxQQqw794PkvSJYFTw7vge+udXUPDl/RbzLSkE+vJgOPv1Fuj0UB9E8HlhTPHfi/LzaVZS9yguXPfrkK71jsYU8mZkhPnFy5D0jUuY8o8vaPGrZwD1x5yi81DmVvHhKEb4J96W9u4lPvX/gAT5ZwY49x5CEPAx8iTsGcOw81SWVvbIakr35J8W9iv7Uu7fEH71ZXo89LlX1PerlCz7tt3G7GfgAPIx4kzslMIS9YWHwOliYhLzSfCQ9O2ezPW67lj2uYoQ9+Wt1PYBtrz1mSII82b7MOyLMCr6yusq9E1EAPaCICz6BrXo9wadTPecAZbzfo7w8aBjUvD578Dzo+Ke9rbC8PIz8Zr0OvhM+b1zePIwNnz3pjiA9aO8OPRuBjL15wla9jO1yufZoCr0BU9C8IBaKPSXxiT2XswE8W3vDPQJwrjxWkxG9+ng9vbU6R70xCXm9DWPlvFiL1z2XGts9CSBhOwbvf71D2ya8SJEgvWifYb1D63K9ekgEvZJTi7xdh7Y9IAe6PXp61D1YPhs9ba1kuyWSWryOB/W9JonVPTaqDL3VpPO8oW0IPqWinz3j9xQ9iM80PSccFj3yCu45j3jmvK8/lL0bjb+9oyjbOybgfj0puYY9HBgFPU5eWr3iXMa8VvzYvZ65er3mJfe96IMTPPO8FL1PMbk9EMciPW31LD45mwQ9OojMvM2OHLxsVqK9ydLWO9onbj1ynVs7YqlSPWsKmD3RWnM8Rk9KPXUpoz0m2f47qasyvSaIFb4XqY69XSo1vZmotT1emaI91BMUve8/aLsW4yC91P9evf+uqrtYIQO+TtYWPYfbLrw1rlE9J1BePbYEKT5T7vE8CF+tu3FOI72N0/y9MUaDPfFezTtgaZI7+XGhPWIAx7yHXBE9U7JMPbKdCj0CLAY8dTFGOu0lVL3XUSW8T4mquzdVnz2Rn309OwFsPDZrRLtqw5u94PIPvMXW7zyipvK9a4bAPbjNJruehYs82XJSOzsA9j0fWTo9fk+Vvf9wJL2pSq28tDW6PWeooz3NJ8y7GWcYvcnjgzwX2TG9NMfAPf3XfD1w+LU8549jPEhLdbyr2gU95IoiPTNADD1p9qM79aPPvRR/3bylq8O9M+eOPCuazD3x1ku8uUjcPJ0sQT2bdJ297gatvE8csD0N5gE+7a5ZvfM9LjwPnU88kMsCPnAKID3xkoI928dRPKFT1L290DG9VD4FPsWNJDth+TY9qtSuPSW71TrN+4m8BhaEPGZs6rzwNC+8nJv6vfjIET3u/qm9ENr0O3F7lD0pJFa9w3CLPWuTiTvDdLm9DZ3PvJ1hOz2+syk+zaCJveoiiD34gRA9owVyPpL9sjxcV9M9jjuMvfKWUL0GIWG9XEUePiYuJz2p23Q9u6/HPfK8cb1CpRO8Mr2UPXUmsTqC0xe9r5tRveUJcT2oip+8b/GTPR8tuz0OEP273Jh7Pbxppj2SvQW9C43XvSzqQT2tvzU+7EJyvfgqxz2w8Hc9vTCGPpEhvbr47K09Nn5pvflawr2N8za9xvJCPrMXbT2tzko8fpiYPB0UuzwVItu8rhrFu/I1ibwAk2O9G3ccvXJ9gT3OTZu95lroPVUY8z3kQ9a4qvp3u4Z00zy2mdC8dU/eveeUgz0vAEk+R5UyvSvV/D0PFHg99nSCPp9EWDyq2Ao+we52ve9sy70izxG93KtUPjJ+ZTxldMI9SdNuPYN1dL27pR09LqSMPVsWKT1/I1m9Mor0vBSsxj3rQv67gg9ePWWb8j21QZe9OSQrPSH6Wj3Zuhg8BKlYvdN/Zz0cwCk+XAX9u1Mp9j0G6bY89sxhPuxahLo3Qcs9bXfvvD4upb2iEuG95FEJPlsqMzyLMoI9SzanPVHNvbx7XvS8fHS2PHEVPL05m/+7mmFbvVI/HrtXsAS9amLKvB041j2Hzqm9zmKLPL+xrLxepZ882oZPvYqspj1vS9w9T+XUvC9AcD3RRoA4ipVSPj/3Hj3Zj2c8ZwLCPF+wwr2Mia29eo3hPeaO+Lvj+jG96NIuPcxoeLteNlY9jq9RvFaNAb3oYuK83lN3PP7lRz2Z7DK8uTJmvYqYAD2pkje9JgkWPS/Y3bzSWVA9m35XvEbAEz4JqbM8czudvahcJ70Q3aC9Rd8QPn0tyT0n5ju9lNGXvI6epDw5pPM8HkAQPZKyubxww1q9pbT9vFHy0b0tA7C77N/bvILU17kpta47DGj/vIoaNz2YPQa9TVlDO4tji7xrmvC98dLdPNGhiLxOYQE80+8hPfzF2j3RkJw9m2p0PExX87zaFwm+qx6SPet1fz1Qn2e9Sj4ePFfdNzsnYB68OljZPTQajj1HrS+9+Zu7vZ6hs73STYy9P3d/vRIwrj1u4w093m0+vUFdXj2MFqa7a0tAPLFJGD3qEXC9jih+uEYA+bvFzSe9AJKsvA6zFj4RhZM9pdXMPPOKKT27+Oy8q2AxPm9ODDwdXfA7PyF0vcHq4LzQOjo8HvLFPeqsij2pfXu97sB4vVlaQL1g+eO8Mw0AvWXxoT2mbnk9Bsi+u5o/7zzJRUq969D2POZioLz5K8C946hbPV75+rzDQHK92056PUvyPT0M8go+NrdRvRKUiz03Cji8Lb8KPmJQ2DzTncM8QHpbvZ/gMz2Aosw8OMhIPc9dmbyJ1ye7AhsWvSb9s724N1E9Fll0vOemubphc549xQGAPKESTT2ZmmK9ANyeuyFxirz1fP+8NVgVPd8jsjwAsiA8ojRDPX1G/T2uiXA94f9XvShHCz1GwuK94PomPklTZj0p+bO8SNIXPYzv+jyzCw29vY+bPUfpcTw2iH48fMJnPNp0Rb1wqGU8zOo+vYnHgT1D4yA9hDx5vJZ9xzzGSK69BTewPP6iiT20KMC8ykxwPbM4ij266P281neDvZqSzD2CYBI+32VGvUyfcj1Qpy+91NUmPm2ZdD08HLY98kaXvbA3O72+PqG9uDYSPhRM1DvC8SK9VKbwO21p+rqPtHU9zCaFPVImtbiyQrm83j6gvdQYcT0LvIS7gwWEPacktj3LW4O9G/OBPTjLhj01wI+9g4qIvdpPDj3oIRQ+LlzOvENWMz2mKio9xo4XPtcQwz1airQ9wS7dvO437709LVK9btUgPuuJhT1kcQ49gHU+PW8Wfr0SGb28PluJPb9zkrxFnw28PICNvYqggj0mtrS9E8c+PXdUEz5eIpS9tqqXPW4ijj3iU8+8ClNhvd8FXT1QkB4+2IfGvZxcHj5cIZO7bDR3Po2mIT1ESgE+Ux6Iu70DqL0tpyq9thIOPkSReT0sC8k9iKa1PdfwGryFs+W8ejREPXgQPr0KWya9YMHGvXZH3D2PC5294QqZPT8UGj7Bx7Y8GXqCPS7LRj1pJKq9gFPNvfdu4j3qmhc+7Xihvfh7wT0cSBk8cWBDPra+MD1z3Ug9gojKvPDkWr3DBye9oD8UPiPlaD2456o9f0CsPUx/Wrt9Q3q8yy2IPWvGEz0kT1m97rvyvXbAgjww4Jq9vMswvNornD1SGZm80sppO8ybzDz+50a9kPTZvSsm/D1ZZ5M9AdVeve+4xTzd51m9JFnMPQvi2ToD0iY9gLuJvWV8oLuGuOy997fZPYf3LT2qWAe9iTD/OyZ91r3EddY8MlCYPP9ADr2OeWS9VbC4O0a3mDt66pO9ZbZovbLbJT1oDBu9dH+bPXL5V70nlIa8bGinPHNutj0414+7AofvPBaFkLwDxLC9f7luPQeSWTxvXZC8HBRwPIgSrTyK/Ea9TipyPMYrATwqoi+9UDBjPL7QFL7YO4K80P+QveUZoTsI1js8GHGkPTJqdb39M0+9MkGYvaNvkr28Kwe+Jj+9vOh31bxkYxE+xEeDPeOZCz5zLHU7XJW3O8Xlwby1jgi+ficYPQvBMTwtdUe9uVD9PcJaOD3JBVy95nqwPYSPkz3iZ2a9LgyQvZwyFr6tG/e83VsfvR6grT0dNpg9wJG2PLlOMDzYuiw9E7sTvVy8N71RWhG+AfMxvbrOhr1TfdE9dznkPeTJET6atCE9bw5LPR6u3bzKhje9eGTqOxojEj1ceBE9svtjPUlDqT0/dc+8QU+ZPey5ij3q94S9uVFSOy5JgL1SQIi9hl4hPUpHnz1BmcQ9KL/IvBLPdj1KDjo9l5KoPMnA4zyeUaO8hiANvYLMcrshWk89txJjPfUJND2s5rg7S7YGPQi/GD3KEJk8HEYBPtxOgjveRm898l0QPZa3sDzkqhe9fZodPSQv1T1x5ME81vX6O/1lU7wNnZC9ZiMdvLerUz2Y7gw9j6qDvTFeWj0Wq0s9RYsVvA/0MD1cQT47SxQLvQhaHj1dWZo9BVMnvb4JlTxcMho98X0HutCuAD7cUCS8VIDbPYKblb03sSI9pBP8vJtP27zuOVq9tODKPfp72jxzkYU9k5SYOjkXEL1oBei95MGhPQ5lrrt+zw287XnWvBQeuTuTDX49q1V8PZ58JjzXOe28CW9Ovey7vz2XoQI9bFdqvAME9rxSZOU90X1uPNvygT0K4mS78a7iPd03VL3aQXs90qpcvfOjAb62rI69dc9IPTwAcDqF1yi8vntyPW6PsTnrx6G92hELPbNRIL2WNWE8G/N/vfWfkD12adw8hUayPXUBQDznPyU8aFdxvctnmj0v+Cc9cHMVvaSAh72uv/U97Qt5PYki8D3vGJo7n3KyPUkwfb1xV/Q9NcHWPNGMyb2ASzu9LVa6PfNNRj3AOvk8WSY8PYOptjwehtS8vaUiPcHX5zzPkV29PP16vUydbj0+9Pg8fXX6PEKNsz0aCwq7Mt60veLG0T1AREA9a0ePvS7wqbyIecY944Y8PTpd+T2aw6o9ssIbPvU6Db2GdfQ93K8pPT7FK73pYbS9n2G8PNJnpz2bVSk9HPaqPVWomTtL+iO9ZnAuPf8DirufKQU8QKXoO/b+zj0SYXE99ANhPQNMUD3qPPW8MvdPvXH05TyOqWw7ke9tvaDv1bzSZOs89iBaPXse6DyCJPc8BGTjPQE5HL1J85M9RHuQPC/oAr5Ej6q9BxLEO/PirD1rCeI8kAbLO7+4Ybvksb+95kUqPN1UGb1vt9y82GGgvQm+hzzRxjw9Q0z1u67XHjygx1i9VzuEvY67cz0BlQ89mHkcPSAbLD2b9RY91MuKPXC12T2YE288/voSPqJVKTtBdZI9LzoXvVE5c71frpK9Oa61PcFbqj1qo4E8HiR+PfoRebv4EsO9+Ok7PQrkcL0xnwI9u6/avGm1Ij0MOZu8hF2pPNhkPD0f3JG9sNpZvTB8Zr3YNoM99rfIu15CED3vgkE9CpBaPd9haz3Jwra7x1lcPR6f4Dxus988AzxNvTbjR72FMNK817mMPZTGuj3607W8/dTLvMVRxb0TIda9rsr+PEVElbstNyE8V1e3PH7isLy/Zgg94fN9vGt5qzwE4E69DeqEvTq+ajpHPeQ9lKeCPRg1BT6/kh27xuy4vN8XgzxXLaS9/WRRPXwpmjzh/gA80jnXPHviCj1rc2w8qHzgPBRNpD0Zce88atXyPKGKob2XLc29EIjIvPr4kjv8dKQ883LAPAjgEb3dbmE8cmWhvTJaj70hWLS9yolGPF/J3L19KYE9J+K+PUeE9j0NoCY6D9HnPHXdYr2kDQe+b2OoPZ1X4zzm57S8UfwOPaWaKj23Zdq8S2x3PXLtzj2NAZy8MAzEvJ+hML02WbK9zNEwvfiIqD2sedM9N6RtPCu+Rb0LXL29ULrJvYmgFT1bDc29NPGVu3lnzrxVLHS9ZoKYPJwiiD1tiHW7qTYuveBzjr1jfKa8OxEaPlBmzTyIPcc8MzWlvFWVMb3uyTu5VPwSPSZ9BT0i9zc86ttTvJFNaL2SIqs8/cc8vYdAIz044Si9C6jDvDC1gj3Hu8i8+awJPcOgPz0vasa8PNynPYhSGT1vo6G98FIZvaDhtzzt87w9JqGHvYaMij2qbP476tBJPl6xYD3PB489cIGZvXpBv71WHbq9Pkx5PVyPgD0kJiq8EHiNPWTDBTwUml09qj+PPSY0G7yVXL28UopMvQUicT0jCPS7EOCnPQuruD18YK+8m1djOwSctD1GAbO986xrvarn1T3Mrj0+0OhcvWzKAD4l52E8zpBUPpCZILxubP09hIZBvdDF1b33YTC9K/wvPiKbUTyRgLQ9nkOFPWNuDLxxOE49b3CVPYgp6rxrLWG9BciovcgZtz0RuIq9PQ2YPdxZiz1AFnC7gBaqu4viiD3m4wW9/3y+vUHHWD0c0xI+7HJCPNsP8z3pjrQ7UwsuPlkPWz3yq4E92rcavRqmpr00Lde89b8sPt1iybyAUq49qNOIPQULkr1kEtC8PeevPajR3bzd36G9tA3QvYo59D1zphi9LDQgPTf0Ej6qhrO8K21+PTnGWT3TGww8+A5XvQDk6z0L9z0+Fw0GvSkDYD1yeo48RItZPk/NOz19qu49CNmCvZ+7jb2zo7285ZEfPuxJgz1pH0c9t+y/PE1MCr26PeM68QouPUldf7v6Rmy98KWUvCD3hz2Dj3e9K1AkPCOFiT1PnJ69M8hIPcEuybsLUhO9UaiXvHgcBT5WygU+O4qSu79eYD1BBxW9+BwNPmmOGD1x0W491oocvN/Z8rxj1L+9BJ2QPU89eT0PPgk9kZPWOy/JRL0eP1k5citivLZ//bwmI4+9r8TzPF3qTz0RYYi9RHXwvE2ipLuAvoS9m4+jPK4Jir3CVQq7vE6vO35JRj7zbc89gBAFvWQ8L73A9fi9+/cTPpMuMT3uvbS9Z+GZvBGfYT1ljvE8G3aJPUK/4jo7XVW8KVMSvRlywL1fTxa7j/yrveoK2bylvyU8jfXOPNLAjbuxHU292r3FPC9xSzxPMse8jL8HvWEsh71iX+e8925LvToE0D1DkY89NOQzPDITLr298ne9aLGrPblz4DvVtZG95sAyvY6R4Lwm+jS9gOtkPbYjjzwcUjW9lL6MvP+L2L0MQw69dw+NvXySizzCihY9D25QvScSELy/FNe8aMiDvU9HXD2nWym9Ti0jPKuQGL2ncRC99Q5rPZU0HT5kr509A+2Bu4t1xzxvY7G9t0cFPpvvwT0LzPo8sVyJPIeApbzMuO074VnSPQHFED0uajO8X7tNOz70r7055lg97JoqvT/6Bj26Wps9HJBdvZmF4zw9Olm9sBufPBxYgj2mtaa9rxaIPXhULzugbBu7MxRCvLvOqzwTnck96qkPveuDyz2w5Yy4baQKPh6YYjzY1FM8X8+KvWzevL3hhY+9bKnSPbNqUj1Z2zI9hZiCPZ6hqr2EIQk9K2yyu8zBkTyq7cY8jA0jvVfHiDyy+PW8ekIQPQEx2D2QXDs8ibmVu2ulUz3my0m9aDnOvShAsTzwN+Q9rPmbvexWqj3RPfM8GLpWPu9EiD3mwgM9Vq2tvblk270qs829indIPulrYj3X/c67fi1JPLPkiDymFrM78wkYPUm+Szw0vwW920DrvZoSvj2gT768MyM8PWxu1j2vFKA8+tIwPeMk3jzoqD+9BjrrvXTG5T1dD8E95+iPvcdsDj54C7q8gjcnPtAtMT3oh8E9uvZ0vaUJSL2L/Yi9UcRMPmKuX7x/7cg9fp4YPLg6mbzWLT09XYxFPaD/Fj237qS9rIAIvr8Rez0Fz5q8duGaPUVwXz2L+Ie96dCMPSpLjj0ysCa8vKGYvRuxDj2MFJA9s4CuvUv6uD0XvGs8Hps2Pve8mT3dlKg9/sUevbSGyL1wpHS932vCPUI25Dxq7q68eLKoPA7Og71CgYM9YDkKPfqwNb1HIo69WXFGvRUOjTwpBJa8vDyRPGjwnT179VK9/gesPe9cLD3hWXe9RVcyvSRhuj3+qoc9kmuGvICTBD22tyq9ZJbUPVZU1T1U9i49HZUYvY60D7wEerW8o+YnPawhuLzjJ1a89dtsvb2eAL3Qaq88ZVw8vKCnaToc+Oo8Q06VPP0+3Lw31Ta72EquvTcLIr1VR069KZsDPbJnRjvBFAE9iqRiPTUYPj4lA0S9Aj4BvcpcR73HeDq+A+ucPYe4bTxOv7C9TOuaPbUSGz7awMs8pbBsvX1THTxtKBS+pY9OvYbhBL5HG+I8WpK9vaCM2T1lNZI9L3m4PPECsbyrtoA9QVOdvKGKf7sz/6O9Ng1OvckbiL12JhQ+AugsPfGoAz6ZhZK8RQiUPcHgBb3uBwG+xEmDPUYFIL1eUya864WlPcx5CT6Gy/m6qWQzvQ8uhj15J4e9Slm0vQb+y73qG1+9as9avc5xhz2y5BE+e1wHvHKepDz0GpM9Cu2FO59TGj27w/y7fYGYvM5E9TzZfvk9NGV0PWTwPz0LU54901GOPUSAET18VIW8JC1IPaUsWbyNBIS8P77qOdjSqjzle269PZsOPaD8xD2GOd875UzjPOXqk72aUgW+wmHWPB+ocj0tdhg9vfFTvZ9rjz26zZU9ctyPPdZNlj0Wdka9Li7cvMYcDD2xm109eybovEK417zhxrQ8lzdqPQT43T3ysaA9ZmEcPuGPbDy72Lo9F+YIvYhjpL2P85q9rnM7uvYRCD3uBOg8xvqQvGnNRr2RkVi806gNPE08eLws2hm8uunHvEErWryYU827QxhWPXWQaz0KxOY8uisKuyg++DyA1gM9S2UlvfLXKrxYpz0904/BPPOcuj0Afj09juT0PemrNjz57tM9nXpbvXd9vLxZAp69Qj4vOx+4gLxlPra8XzElPXV3j7w6qiM9zuC/PFJch73Dq4e9Cp3vPNTSYbzBx2C9T+MlvO5KD7z+9qQ88eYIvXU7kjxifZe5ayeQvL4DtbxRu5G8ahY7vY3rWz2L6Hs9EysAPqxBxrw70Po7BiT4u5Sjib3/Joq9j9iIvUBiz72wqOq88xzruhe9mTxFt868yLCuO09P1L0Ef8m8ReHDvMjXFb1zTEi9tKAgPd5HbD1dnES9H8owvS3zGj2dexi9ciWdPZ1zlz0tko+9TnTvvBoo6D3hTuG8GNUIPWqcRDyHR0o9E+Hfur+ozzytX6+7GYlbvY0ahb0zrOK8Q9B0PPm7Eb3slxQ8kVkLPdhgbb0gNAW9N10WvUChSr1CDK289vcePQ2qZz1DZ3e98GHRvMutmbxSJQu9UlBmvIXUMj0tBh+9XJ0rvOiUMj0xWO889JnLPaBMKj1rEsA8St42vb1YvbqH0KO9/getvRKNsr0GfZ28fEXKPCAc5Lxjfmo9e53XOhKVS72Ol3q595EsvQyLTb3p+jM9bfyVvI0DGrw/lDG9MShWPbDxyTzEdwW9RE0xPWyv8zpJOhq8BnP1vLuOvz0+2xI9m73IPWNLC71sLIM8ed0ePZFOmr19srC9VMEIviE4sL3LjZ47uABePbZUjjwNWNG8bwh9PaNfjLv54wM7RTd6Ozqb+TpgWQA9T4YuPUeRWz0z/IG9hc19vXQ+pzwM/QY9Gos+PLrkKj1AAR+8DdG+vKTaOTz/5z08CAcxPbWnrrrgikg9xQpSPTqsxjwSwpi8I8jwvM/Gub34XYy96IXDPKJTgjyDygy9YYwNPaABXDtmzCg6edhXvRc27zwm/HE9a/kEPc0Kdj1P2ta8I2WGvSmpkb0nYs08U/1sPQrNrz2VaSe9DhlTPSbN2Tsn/Z682CDPPdk/j70LEuc89h/+O3xCGb1bDVC9Eqcevb6Pqb3WGSq8hu1GvUh/szynjN48e9ugvcdfAj3svsg8M7qKOnv3nj2ZE2Y9+8S5vMWLLT3VtQy9lHo8veTfC7w82Hw9sPnNPJGo8TzY4rw6eGkoPPZibj3au149NUsOPvuqdzxXHKs8yX3IPL5aMbyJ9KC8rEfsvV5zqr12AF29C3tTvYXTUTrgFGo8mLBvvUYjtTyLIio7nTLzvL1yTz0dF5g93FQkPWb3UzsM6h69/qASvVNDGLzlZnI9lnUivQy5rzwmJvY8x5KPOyehzT2DR2s9H7nGPRX4v7xaaGc9tnoHvSX67b0Utv28LPQIvGofbT1kEv68ahTxPBO8H70hW8C8gAfKPDYHtLy8blu61CE/vapyxz2nobc9C1pXPX4qxjxddwa7KEaivMJlpTtW0Yk9U30HvUWjfzzo5Ug9Hal4PFO/uT0KG985NiAqPiDOjL2+HUg9CrOOvTbVQr1rVQC9cK+0PaBJrj3fVaM9BdPyPE6eh71AOYW9DhILPRHXD71vCo05G6+lPSFqAj2jyWI8O7GDvYWvTL2nOAO+yVipO4HcF71FFaY8VMaZPYf7CD6hUu880Ug9PVJaiL2nGo29+OdAPWCRFj2o0ne9Wh9WPSQoeD0Brc68Ryq4PAQhSz0JLG68ZcA/vDblwr3mObW9DZ+Qvd5zLj02jwk9pzJlPVorT7wzYwi9uItpvVkZE7z8w/a9m/MDPWI07b0xGVo9W2jdPWghPz75/0O9V5dyvc4EEr2khy++Sdh3PUcAaD38H429JAREPWNehD31UT68uYDpvMEKID2y6sK9ZiLVvedLtr0cN+A8ZwrSvCeSJLk5Gf89t0MmvB0W8DxV4y69pG+WPEqoDT3Gp2y9p+O5PIxu67yodpC94G+cvNOk4z0uMHs8g7CKvQP3cD3ZjYu99G4sPpw2iT04zz898sM8vdIqo71xECa9FDvUPUQSUD0yWAE7/aghPeSvM72IYK+7BwWHOlaTHDyJmZe8AuaqvdCxuz0x1WS9VHdFPKHuqD05bIW9CEW5PJrSzT2lqh885YXXvQ4ADD2JYS8+ieOcvb/Qrj1hoqM70QczPtbKCD2GcPQ9fTQgvcI3xr0Zhma99VkmPtRaZj2YcaE9OLyePBu/Ir0WiP48O91hPW5PNTpEJfa8ApdivfMTfT38O1C80OjfPeqjGT6/2+68sl5oPTlT0j3T0+m8DLjHvUq95z1PMe09UJkGu5Yyoj2rsRU9wj86PpgKSz368Ys9/YHzvLfErr0eatu9ZI4aPmNKED3oaYo8bhWKPUmVDTuhfuQ8zatKPUXkbLwtGSW9+zDkvaXFkD3NHuk7AvMfPUFBDz5XZ6C8nQjKPOPE5DwpqEC9Cr6wvbL7/TxwHRE+H/MHvO/1Cj6m05G8pzMmPvWhrj2CbUc9LHuWub9+Ur2u8K29cGElPlK5wTy9OIc9qjpIPUUKHL2EZs27v8N1PWfuEz1EZIS96JR6vSmY8jshm629m6cyPdfZ3TwKQGu8pr89PePRgTyWLC887P7YvAtPBj77vps9vrd1u+/fOz0xY5a8Q1UWPrLCnz1yrYI9l7NevZXkur12u5S9BZsCPq+UYD1Z/wU84IM6PSRvE70Rp1A9GhosPQwKCbxF9Sa9I7FKu0aRhj1N/g67EHRIveh+pbxyQFi9VDkhPf3zrb2jDZe9bZTKvFs1DD4S9Uc9S/9zveABMTs8mQ69lxepPXF86zzOs5S7b3UkO0MO77vfpxK9jIw/PYVvbj3NhzG96JgOvU889L3s/je9Ko+tvQkamL1aO6C7kSkZvQSnVzvQ67O9ZPyWvHXavT0NMQ+9m08CPewPVjzNh1071JOxvd48ID0D8Pc9e2jHvMv2uz0wC4K9ohkxPnzRHz3OgrK5we9yvMerq70dvAy9TL+PPdeloTyKXoe8J50tu3VbQbx/PG08HLotPT5NeL2Thz+9jCVgvfxShT3NH4I7rnWxPZYHiT3QnXm9v6xmvIaMQT14ggi9yVIDvefU3Dwn79Y9BoCnvTlYtD3be/48sWI+PrvahD1dpPU9g2CovRcy0r3DXYm9wJvmPVDcLLx+oY08EDGGPYIwHr25wQo9x+SGPJ+GZryPEUu9tix5vWgIxz0ix4a9OlcfPcTkGT53g1+9IEswPSlUGj2wez+9b323vTFluj0I5QA+zAgKvBGDFD5GGWo9O/BrPq/fnTv5Si89b7CEvBIqzr3jXIO9a8szPuCjRz3eDMU9jESgPRGtIrvTtk89Ob88PZylLT3iQJm9/DTdvR++mj2wqNy7sE+JPbUJOj3uYS06E0vYO1uQHT2CvSe9kcR1vaVf1T3oT4A9cMPlvJos1z15yQc9tFg+PiJFOT0OR90911OaOoC2mr19SLO9C7+9PeAcJz2McKi8q+yMPREesryO3KU8t33GPAxXU716YbY6egN8vT+KrLwdWsm9ruY+PRzQcz1IL5S97TGwPTopWj3tEgO9RO3IvLug2T01Zoo952kFvp2GDL0qdai9eQQKPk4zED5tPrw7fFNovMNyHr2bYwC9Ri3yvCNxNL3BBg+8xZsJvQZ9eL2qC+I92ySwO9b2C729fTu9kUPkO5NooLw0UC+81MhCvIaExTptT6+94S6mPVrCBj267J093NFfPav9yz2vC6e9DI2VvHrHO72jbBW+L6NvOyKjkT2267k7Vg7RO2y96j0v+/W8Pd2fPBL4Nr2lbvS9zjC7vew0oL23/i09DQmSvZNIz7x0eQY+gzq3vC9Z/LoSl6E95iv2vFpQMj3PvzO9WnSYvbZ0fDvyeJs9Ng5TPea+QT2zZv47vIW+PGVSfTo97oC9r/GTPY1PPr1QyQq9bOQbPeR8qz0AilW6u686vEi1qDz1s369qnCavUc+B77adLS8mZPAPKZSlD3PqZE9o7B6vaoAoD1fUs09T5isPYuCyj2OCIS9eCXuvQ8PijxhkJk9JdUOPFRno7wAuc49jbeZPcn9Fj3zSka8YvzCPTUP0L0+oWU9sLOkPP9Xxrxr+Ia9k5RxPWe4BT3TvYK7yLuIPUfrA71hI9S9tT+lPTjkCzy5Fku8NpAUvWOMZTwAs3o7jUclvGaZxDwuvgE8gG0rvdPBV71qhhQ9P7o/vCgTPr17yGc9WB62PHS/QDx5Q2Q9NEelPSbj3zvUb107XcQ8vafSor3DS3e9Vb8TvR++Rb29p5E8sXQuPGvVHr0Jfii933n6PIPgVb0e+qy8YvcIPAsMmDx/oW48UfexPAnP+7xPRQK9lkZgPB/ujL1QBGG9+N1iPVGpSDy6h+C88XYWvT2VrTwNUB88SrAyPeRWzjwILm+9XG2IPOgOkz0A55S9yKjsvVYJCL4784K9PhlyvTAxzzzhlQy7Ir8FvZYZ8L2+76S7kAltvEyFFL4xCr+9OzSbvQLilLyYj9Q74ZUPPj2im70uGga+t1B0PTP4Zz0h1fu908C/va3Xrjw5dSq9xRPcu64Ttj2J3rm7S/qYvakqUjxIiHw8WlsxvjgFI77D3xO982frvLJyd70YR6E93o3JvIuoqL0UX4G8nmr2PKzSLL4enTi+FOskvBT2Nr2s2Me9niFAPmwN2bzxk6+9yvuZu3DwRT1/dw++1k2CvSbqfr2rBqm9WMw/OisvtT3i5Dg7xh2KvOECTDwhMI08cg3svcodBb4YBBu8IW6iO7dtfr2rYIK8VZydvMqn37vhiiw9K0BBPSJyO75hmCu+5OXJvedMz73ce7G97m/rPQ3TZzzM48u9X12iPZ0Y5D3CKi2+v5ZAvlw9Wr0e0AC+xKUbvTr1Bz7rZCU8pt0dves+DLzbHdo7RjW2vf+qFL5v9jG7tiFVPUkhAbyNaVY9Wk6YPfKyhr0yVcO6UT6EvIY1372ykS++ZuPfvZg8KL1+BZC9xAUVPi2myzoY4/29XY2UO8+DoTybX/O9BFo4vpQiQLuRiie7jsPSu05hLj6cBzg+6jf5vf+Kvr0Juh69jCH0vFkW670sm2I97en3POOayTzxsDo7DvD0PcoBo72UrJa9QGkCPSdrRr3W0Cm+d2WVvZ21Pb0NSh08rhcPPsZ5Jj3sSDy+Z9JHvYZFJ737O8m9qVH/vY5hzbu3X2+9tNgkPc7AED7AHAk++xK3vZy3Ar4fLHW9OyeBvbUOqL0zi/u7cMxQO+QAsTyBiAC8RsoVPraGzLwdoIa912IpvPwmPb0HPwW+LhEHvbHtrrnn83s96tX4PUoKoD1RhCK+S5nEvW/VU71mxv68QfbWvQLUtD2K1Yo9zfUZPrq+3z2zh9M9voAMvoEClr0IdGy9g3LuvGd9sb2J9I09RiElPRRZtD3rKVm8BVAJPs8AWr1IlxO+GhgDvaqL4L1INRS+Rv81PPzlZjxZay89NPEUPdZHyDvMUEK+o4hkvbcVlzkAUrO8at+vvegyMj3HtwQ9E+mvPR8zzzzl4p49jho7vocp573hV+q9LEuSvWx+Gb6CEyS6nuuBPQB4iz2vgxQ9BnycPcKkAL68aiS9QrKnvavZAb157dE8wUxiPUvyAT2ClEQ9GkMgPP4V7jz6H5e9o3a6PAk6kL3ej8q7Y4VIvDgyhjwZBrA88teVPbHIxbxaQ4A9GHV9vfNqCb2RfPi9Gcb6vevgsb2lFHi8nEruvCaCpjkO+AW8vmDkPMCF1L0U7mO96Uqmvd/VGbxuY+o9gL84vFKNxbslEGA83TOJvfLXG7zlhRi8gLnZO/0fqDxKDOo8QweAPaKioT18unY9dhUNPl2fu7xl+OK8gu06vKD86zvIBEq9ha0bvRPJvrv9dpy8QRmIvbI5hzy4l7k87ooDu9nxtr3del490/wvvRGgGj3STss9zueLPegMnD3VKXK9cZOSvfMDXTxlFsK88FohvBPGdz2c31U92Y8evCjtRD2I+jQ9/1MMPZVb9TzvTzE9LBmkvZVUs73wRoa7NQY6uqz1zzsPTn48rA+BvDg0TL1qZ/E8nV04PTh2hr1PUho9XfGvvf1Qwz285509iBUWPekHRj3nJaM8ozvevWlLND1NbAS81k1gu+KPTD2HjME8C2i3PCgBiT1tZbE9PMrnPcj8xLy1tyE+t4O5vQ21wL3cVVC9vuV6ucj/EzxbYUK5T8fgvJ/yaryOPwK9SFDpPDIYQL3rmTC8QJh4N1V8Lz282LI9qzmSvXLecjx3EKC9CBhZvXjbfb0U5qY9Sca5PNzrdj0XX9E8YzA9Pd2eVT3zywK90isgPWX8Vr0eM5c8kawbvf/LoryQsYU8GPUvvOE/jDzffiK9/fadvb+13b1GfG29Y8qFPC7ViDxNyWw7A5YfPRvyhL2qxzm9gMi+vXjHK71KhaW9Q1WxPI0QBb0d25c9pl29PMpEIT5fWk+9JgiCvQBwPryJxuy9U6iKPaoWHj3vhqW9fDVYu8/quz1GjVA9ZGaEPdmVaz2ZDMu9RnsHvVRasr2xBie8PApOvW/Acbxxfv48xWwguA23Gbuzx628It5RPAbTgj2vjC+9tC+HPdVJWT3HI6M8xAopOx/i0D3pw909cTcFvbAuUD065ti87ozYPX1mkz3j76Q9/GgavS025ju4cOW7RpkjPbBq8byaI0i930sWPD0bNL3rfLe8ORR8Pcq9pbzTPh+9BQvxvTU95z1g1Au9QgMVPa63zT3cp3o8ttCOPZPjlj11SWW8YNzgvVQjXz0pXSw+UNnAvaFtUD2nADY90s9/PmuohT1w1JA9vTOgvHsE2L3F/6q9nbH/PbKvpLytYDg9ACqlPXELSjo7PZW8BxtKPYGdVLzsLIu92hmYvT8taj0c17C92rgcPd5S0z21upw8SHGVvL4ltT0AZ5y9rZy+vARCoj1CUTU+rErNuQ/cZT2S2r+8i3BBPiztdjxe9Ug9D51Mvbglyb251Y+9dmHQPc0VVT1A/ru7Kh0zPVFTv7zooTc9jziNOzKU67wFEL28CjeTveA04z00B4y9lxV/PT1pCT7UgS+97G6OPcad7DzmxQ29T46pvT5aQz3fxSk+odxUvcd74j3+bh0963k9PpJmOT0HkKY9q6NYvTLibr0vfr+9MsgEPsBBrLwMa4Q9KRrZPHv07bvFF4a81bnkPIpSXL0n2la9qkkOu2h3Xz13PK+9zGMGPBYh0zytqKa9MzkfPA8sJz1GQAe88UI5vZ7KlD1iP5A9sxkpvYGUZj3VcyI8YzATPqOSVj2NGzY9MOxgvdQsxL3Ebd69TEwMPna1fz1k+UU8Wt4kvDeETLyw5Ao866ACPFSSNL3GHGW9RJLmvc2JgrvSkt+9dxdmPbvTtj1MIaa9ydnZPUzH9Dr2QE+9f18Jve1H0z0Ivcs9TTRIvUvx2D2huZw8V8IfPmzD9Dzl0zI9uiOWvMPsHr3yo7G990yuPZJCFL3ieAg7Dc0UPQdRhb091SI9OjCjPXnpzzwJYua8EsO3vSn48DzRYXy9sj/duj0iuz0wRau9oTqJPao6ArnVHBI7h9rSvJGjej0Z2Bk+WYxBvUryAz6Ue3a8Q2ZEPvBMtD2nMsA9D4vPO6avk71UT628FkMnPhzwL7xVoPY8hko9PdUmRr3b7XM9QuSMPf20YbxJlrO9Lbcxvfxjgz0n4E285syePU1WVz1Nsh29g1YKPBypdrzY0uI8HimSvcUfVz3qNKo9LwfyvB5LGD0gpS28hhJgPifagj060Js8vdnQu5uCR7yNzjy9NErQPbMJTDvJbI88OF3hu5YwQr1x5XI9JMI1uwb1LL19N9Q65QMQvYYitDuuv2+98l/OvL+Gdz0GEpq9CZqdPbfDYT3skvq8xpM9O72FQz1TJQE5SDH2vSmVzzx6E4+95hYGPk1g/T3CXDA9nG6gvd74Lb3qHYG98JeGPfT38L2iljS9KGWWPKNb/LxXxIA9ldsFPW0LjL2+DIS8FjP2vDUo8bzhsLG99F+3veqHWryanZy9npqKPN8kwDwZjYS8tNv5PBnsyj3OHYy9e/22vfCrq70xPgC+i1GPPV1xGD7vCCq9lQgevdBIEz0nQUS9HoBIvdS/Er1mCtK9ExWGvdE8XL2YAGg9be4zvTbAG7wsuZk9+JaSPMqEBj2VP/g9Y5YvPW30Mz3GjX+9S1JvvX2ZZzyb0tg92yGaPV/uwD2df1I9zyQ0Pdr8nzza7PW8d3M5PX4/WrxV4eI6WrTOPTxrF7zhVaK94P3VPQf93T2IL928jsEwvUjSb71R+8m9WHKiPUDVUjpR05I9fwC7vYqsJT6YA08+0KMXPrmFKD5cOzY9e55AvhoozD0QKEQ9biJ8vXr3tL3Nr1U+hsb+PTcoKD6FBuc9GTi7PVUX6r3XYgo+UBGRvF3cDL7Cdfa9XIv5PUCsRz4Ws189uc8FPv9FQD17Oje+cXsbPkDC/jwq29K9EjylvQvNpDrZPCM9Mig/PbgQAz0/10I909qDvWrsGz2qAE68AzuEO6NEpr1Ygrk9jlURPUKFkT070To9URaDPR0iB7z1bRY9OK7vvJL6rb3M3MC9EnmHPef5XjubsA49s18xPWU6yzyo87O7HJMnPQZYh73RbVe9r3OrvED7KDxiaMy8M09kPZ1Xfz28xRm9+8JEPSznPDucbcC9cyTJvIskSz3OUsy9cjkjveBrWbzt+HS8iXUHPUiWlT0MLJC883uPvc2gK72m/w2+k+6jvNraK70Kpx29hByFPYrmWD27Toi8TYP/ux1xxb208B28t3QOPSAtcL0n1tO9th4qvIMRWbxIvAM9VU/lPS17+TxkUgW9w18+vQxmmTy5Dgu+6ij6vYkGhr0tdq+9Kka2u9fEyj0zQA67gYEevfdey7tvpYO7UASPvVWABL4Yqym9/wXrvDIQQrvqzjw9/XE8PQ2Gdb0URZ27atQ6PZ9gAr74XQa+vgyFvaq52rzxeKG8NlG5Pcvtlz2hjgC+kircvdQFQrxoWBy+7j1zvXEF5r0wm5K9mB1CO8vSkz3h3Ig9FpkDvZeLb70HboC8M7XavVAYzb171YC8XJ7evIrOv7z90Zw9gnzLPXc/FLxhgla9Q2CQPAQJ47yQ0lE9LqdmPW3Bbj2YEvc8br8HPPKQ8z1M7t+9fZVtvbEn1b1M4Za8vHSlvDBMeT3DXIk9iW3tPbHiR737MWQ+W0RfvfUUKr7d4RO+Kpy1PcoiVj02E6w95n4jPpQz8j18JrO9bQxEPnEOfrtt4Di+O5eLO08jvj0nCRY+WYTaPTk/2Dy+ROC8GXr4vTWcbD3bANG8ecG/O/V6sL2w8tU9S8dxPS157D3zeLw9trZZPVXa870JFiY+Z70LvIdZ6b2z2be9lCCfPSq5Jj7Psvk9Xc8nPvKjgD1XrDW+fKoXPoX64DzctB29G0GZPYMzATptqpo875jhvBmV1b2I7OK7yNkDvafQQj2q0Do9Ff+nO2Sptbyz3qY9C8c7OznXMzz1Moe9wghyvXQTQb0LEcg9YAljPSJDQb1UBp09p2uTOs0iqD0I/ra8rYkGvY0muTx1CAa+GUQ7PKHVBz4/4De87P+IPT6sVj2UKwq9qEiVPPmbF73/Bc285qQcveomvTyPbW88ZdNNPSQu3TxsPK89GUB5vH233rxq4+u90nKJvcLg/TyfCKk9oy4VPBke+TwfjOo9xUahvEs1TbpBU6m9OzCvvT/I07uArq088G0hvCyA9z3yYSQ7y9gpPSlaOz36LZa8jY/oOZ845rxBXIk7NKaGPf4HtD2VGR6+8PrZvdCzujsHsJo76B5jvWE+DL3AzUu9a8m7vDK4DT3LQ8I9+x5lvbuUv7zF7Qk9OynSvIWaDb79mp68yznLvRJBbrxwz6E9414tPZRExTsc77W7Ag4zvOUowTvotdS9m1SGvY0MTTuRwA89t865PWlNwj0o3gS+WhmdvahJFbyAe7W9mmXuvZKG/LyBTE+93fQ7vF4voT1lExg+GxbTvbJNYb2jl7A8L4bDvVX7Bb6SOSe9EBYXvTAqDD3kO+U9dBVlPYQZ071Xv1O9EyyXvedy0bwfWzK9tw4OvR/jIb2hVGg8Kv5XPel0AT3CcSO+E4kJvXy4Xb2V4Jm8FP/UvR/mBLyPmYE72PA/PSOjSz3KaBI+2HnxvSghB77QkQa+ojKGvYUzAb6Tm4E6Al91PAZBgD38tRm8buTbPZCq4b2y8bG9oUtnvUGsvzy8Io69oXGtvP4Lvzt50rI8q/BBPWmRtzyMaBi+z1ixPL/3FL37epQ9lFqFPLVM3DzIehY95M3vPeZfnjxQLOw9yt4ovaQUrr0V4xe+3xcCvehHw70ZDaE9yy2QPSGIUD25l8A779P9PdMUFb7vI6+9n+2bvWbrKz0Zagw9N1V7PUbEjrwqCvW85burvGfxTT3in5+9NE88PMYxiL2up+i4abaZvBOBMj1EZQI9vxCVPWHuFrytFQ4+GhgFvrL2YL3zW3G9JSJEvZBxnr1+0nE7bvSTPMXtnrzmi6U9HArqPZkUAL5HqLW9NJPhvHbWLD31CK48hzeoPOh55T19iuw8t4pNvcgblD3xti+9iZ9JvaJv2DvWEsY9sPI2PYrdBj44qZ89l7T8Pf3wMr28KvY9Wcuuveetn71is9q9qjS8PMbWaznWSD66ptqMPehZ/DwQu1+8vleEPTXLcb1rtnC9H1S4vXgGHT6S6NI92YPxPY794D2+kAQ99agVvj0rID4O1J09Qm6LvTaAjL3KgDc+LZvUPQZn9j27HsI9os0JPo0CJL6zvwc+g8aovHVeTL7GVYK9AnopPoUEAT5KAgU+IE1qPS9AgzwKwda9yawGPo7ko7ynIsm9o5qOu1XxvT3zDY09amMrPW2KcT0v1q69gpJyveltXbwywEs9D2YkPQb4Nz227N89elmpO+mVjjzysPK8GFx/PYXJtL0tKCO9fc0EvLwBn7z3irO8C4LcPMcLGD7VO0Q9Z6E5O3fI3L2cMbq9vjGZPIKQsLyukAi8C/xYPYOHLL3GNvm9rZ90vdlwrjv8jBO+twEwPCZ1rr3pZF+9c3CGPIthAT4/YrG8Wfi+vSRpFrskARi+p3UCPULvZz3buYi9WHAZvDLyjryslD69NQ9KPdewkbyeIma9mOLdvG0fAL73wgM97tjYvPgiQjyUw9Q8seurvWYDJL3bFNS9L7kEvIEuFz3cG+W7+pHvPTCuuj19+bu88Ub+vZza9zzO01A9ENyuvb2SdT2rRhG8zo5HPsyhpz0M76k9waHJveRY5L2iSdu8kHUxPOkdbL1BH607SkHkPBL1wLxeYt494AdTPZkIsL1ulqK8dcszvRVZEj0r5ue8j9p7PR1npz2MUV+96udtPQsB8Dweg4C9g1VIvdqnzjwJaww+4ffevWICdT1qXrE8YzN4PsPhgz03MKw9ULs5vVp9Ur0AHZ68FVkvPjZQeb11ml09pkJoPbjXlb3xUac7fP2xPevHKL2foii8O+mGvaC/yzzRvhq9DXYMPQm+uz0YPvu87/eQPX7OTz3s14G9DSfEvWx2GD2wT9I9qXVdvbHupj3xbZU9lZxfPlTqdD0QwoI9a3BJvb8sur0/sdW8V6skPtPV07yhCfU8q/25PIWRGr2cWrk8tNYkOfQ/HDxP69C9/QbbvOP8pDzzIyS9Edw0uxgLBj6/vk69Bd0yPSLI1z1vAnO8k53/vfzx9Tz/tvM9cTlzvHU7bT2VE1k9wAtvPrZVxT3N3es9mA9GvYAM/71Z4om9luchPllTkbzR/Yg9GAYvPRo9kb3k9TY9aqeYPRehkL3HuZi9WxYmvfAvpj0r6Ne7E4mUPb331D3MLqq9O8GrPBHv9TvKoZg81qGrvWoYwj3XWSA+rsiDu82Nvj3tFAq9QcYPPt+q1Dy4Ns09hQtrPHGhtbwljI+95e2yPbI247xn5xQ8TaqjPTUwnb2Xu+g8lqUiPbGTgjx02m+9F5MXvd7mOjkln6S9nYi1vB0XKz0d+cC9UzdEu9d9Hz0TxSC8w6QKvZJLoT0X9g4+PH1CveGVST1uHGu8sqowPjsJoz0S2o48KMNYPa08gzuzLqi8MigMPvbIHD1fIoc8winUOyo6Xb2GLzk9D4OiO25jVj06Iy69SN5IvcTPRz2P2Za9/JaMPGFJFz3yUqa9yhc/PW3bFrz/TDS8D8XZuvJ4hj0x6cU8YkQJvlEBKr2Guue9MWT1PaF/Aj42PaG8v7vqvHzKXrtxu668qhSFPUOUkryT6da8wRTUvMBAcL3CtOA9Z5fZPJZp9Tv4v1O90PM3vPrDhTxIJYq9XY5WvNmEEbyjibK8yEPUPXmKY7sTV1G9w0CavBrFjT0Z4m288ie9vemurbuohf29HUbvPV8GAT6QC009289DvaYJJT2claa9nb7WPIhbEr6wpRe9lICqvAXkwbwl5Oc9DqoOO25eZL16JvY89VEtPBK7gT0kZ/c8XK8RPTznwjw1Bj69W63HvbClzDuTAVc9JFtJvIDDlD2W7oY95j25PEooQzzrpeO84bU4PVbZKb3I30s8DLqMvGgeI7zngKO8LQzGPUCODj3u1p29HmobPJM2eLzGiqO98gCqPf9GF705Lx89gtuYvcUWNz5m5+M9/cQ0PoRRCD6IDY49BCQtvmyPJz3nVw4+ZvkovVem27zD9hQ+f6rMPTLf3j0o3ls99VTnPYF9A74gyek9Nh4VvPgza70XR769o8BTPuYJOj5KAio9Vc9uPYN9sbz6jRG+jQFlPXSzOb0VMoi9DhayPE193TwluFW88teQvIqqAT3+vwI9mObBu/CASLzpzKo8SpCuvCD8QT2/flm9qrwLvexs2Lw2qhe99aHBvKxCfD2wM8e8zOmRvYn+ozsPqa+90Fy9PK5dmLyu+rE7q/wUPdkQtrxC0Vo8gtc/vWAmR71UQRM9vFkXvfs38b1dzUK++bVPvUScsTtwjQW95KlNPvmoOD2yFvG9htW0vOrvTz0tE869VvwivronuLzCkIS9VkMyPaFV+D1w1MS83zn3vW2bYjwDmrK9I2FwvTg70L1GM0a9RuaLPRQk67zhkYC7J7C3vGa9Gb4UXTy9j+KqPQdjSL04jl+9NA/RvfJRn70J8ww9nx9PPXRlxj3ahNC9qvaavc2WHL0bSbS948mtvefCOL3++L69V6IZvUMjJz3ubaY9f1yYvWq6Bb3vGD69/uIjvcXX+708Hx69TygtPSA0Uj128Yg9extKPYrzxr0OBBK9ICSqPWCriD3VNbM910G8PFKNgj36bq06lWvlvLqD+z0TEmA9mgrXvf882Lyyls28PYa5PF064rzWXzW8y5s+PeI7mLvl52U+MRVVPUlT8b3SeNq9cDOpvOBGgbx7f+u78XvGPZC/dj11UWm9NA0NPuwAAr40L8S9PPYbPaRJETyN1Eo9BL9UPEBaIT2JfXW8szSDvSNWFT4AzrU7OoQ3vbRhYTxH0DM93gQAPdo0m7wqZBg96aw2PMl15TwqIcU9F/EqveWBub2e/sc83U8BPW0FBb2wrV88hL3FPGNajT2M/Ci9jkX5O1bX8DzJoQq8JHeXPSkkrT2VMNy8lG4ZO5d83rn98qQ8IELqvICByjz7IQq9F/QbvOBT4Dtrh5K8uWmNvQ0ZMr0Ajqq97dpdvYjEVz1XagA82KUHvQPzfrqdj+g9IeZVPId+Gj3Mwbu9qH6wvV6x4bxvSEi79hPjvfD7jj0zEgo+staBPSVRyr2ijpq9xUKxvYvmSr0Kf0088tmkPTMhgD12NZy9DsIfPMLPeb2r+oW9ZiQDvtA3ub031PG9ZqL6vT4wez1Q7V89x/qqvVL/m7xnbro9JOyavRiGx70njBK+JTYpvnHuEL2T+eA9XTH+vQ0mOT3Bpg8+DLvjvBtmMr2wZ2y91SlcvOnV+zv4S1U9KuSYvDZQUT2wlvS8fpuLvRXXa70GW7G6qaBtvaW7vr1LHF+9YeLsvB+yoT1OBd09FzcLvgVIJL12OhU9ibRvvcCDsTxveMe90XEmvcfqajxckn48X9Euvf6kVzo0GWw9Seaeu59d6Dx9yN08Mww8PQKLkDwGbpU9P2ycuxiMrT0J7xY90wgavVEAGzzTPEo86kZmu29GDz15BRG96ujwu5cZC71f5rI8TQWsPEmqZL116t475CLXvDox6zwsa1q8CEPdvHLinDuTbZu8veiivc0wnj08M/09yNQoPG9Ijj0aQS8+HwTXPXlf1j2MNy09tYs7vk0UYD0EidU9e0JcPW8byD3GV+09OjGOPRQGXz0S8I08moAxvap/Cb5dQ1q9OO4lPpq3fT2HzOs98J2qPWkgiz3hoRA9eO7nuvxTpr3I3f69qNIMvhivPT42TzY+2CeHPKSoXj6UDyo+kbsvPl91zj2AsSg9bUkuvtoXdLyv5ko+QEmLPfzulD25qgw+6wgBPmZiCz6VECg92kx0PHXqAL6QvnQ8zSVcPqm/Oj0movc9xo7rPa/wCD1zngU95XjfPEAYC73LV129QMn+vYtWeD7RITw+OXEgPfz/Fj4UcMk9pfkZPYGA9ru43lG9Uuycvah3RLxCng8+bWvMPUgiyTye4m89Ri0sPdrXOju7Bdw85BRMveNTsL0QO3u9Xl0sPjxsRz3ncC8+uZf3vAPvMz3s3qK9MrrOvZrqWr26BDW9gh6yvWvYGj5ADpw9ZthyPUvfPL1MqQw6OZbkvdgs0b0hEAS+7zz0PTyUkrxELV69CSaAPStPXD2kr4e9gGpLO5SA770nY/q99PaHvYEGIT3qvk693IOFPVnVAD1xLXg9s1fSvZcBNL1Z6Xa9NS7Dvdze4b1iVIM9YO3bvOMTfbx6mG+81z4wvY0Xb71smNm9o5MvveuKPb2f64+8vdyOPS6Jkz2EaVO+EYxBvAREur3U25I6RvXJui4mAr3w5we7cTMcPUMLoT0YmQc+GNaSvaTrl711+Yi9Q7GFPC/AjjsAW7w8HybRPJjhvz2+M5c8YEXJPa3Ucb1MHSO9GlxKvUVlpL3c9DG99+jDPK5izzx4R1Y8JgutPfB3ez1tvAC+LPyNvPyjibzzrTA8jm1ava1LtjwGp4+8+/mzPQXS0j2Jpc09/e86vtZxzb3F6Fe9NAwrvaAMRLxlJM47pkchPdtcrzxj4NM8zHJCPaQJO76NvYg8IA6evexDl7rJ1Rs9zXuiPT1MMT0R6Ca8bCxvPPLcND0ISZ29dzDovHs8Hb0h7og8ou6Ivatu3z1JULY9TYYhPipP3zq3Yxg+COIqvqqc/r2xCmS9qcGbPahhgzyXPpQ8sHLvPOfqA722baG9ikDWPEH3db0zEDi95Hdavak0+j3Tkoo9lF+nPc9Nwj39fM07GwfKvSpciD3qugg8gBUEvr6YYjwyYEU+umTiPXnQOj4Rqu098K89PlCR7b3/4EU+7pGDu+RC8L17YJi9jrwGPuLD8j1XuaQ964nFPdkXGD3YXTO+KBalPZO2QL3fHcm9v772vIeTGD1Pra08yqxFvaH1AD3B1+i9VzM8PaMm67yS42A95hGqPE/Inj3boTY97nGkPCDFybzBKtK8++yZPdmvLDyOwy09wBaMveKsmrwFLFa9A8i9PAlBKTwS4Jc6WWFAPPYClL0D3R08yi8VvSUK0rv6bLS8DcxwPLTrD7zjkxG+MOA/vTsGKj0or9O9XIUNPoCqbDyLt5O9XzxIvB2Exj3oxAQ9xbMmvs+fjb1rl0G8YwASPjpWHT4zfjg8m07UvZ2qk7xLWtA6OKV7vRam473LJ2+9Mg6cvWJVUr1ozr49IfvKPMdwir0AOMm6dv0bvXKC6Lt1MtW9XKtkPQ3anj04Cl+9P1+ePWXQlD3Dy5e9RLQqvUJ37D1WKaM9c/gdvpBJxzs+OSC9SHwPPsEc+z0qElE92HF5vepF472Ujri9FmPGPb6Xtb2YScs8TGBEPYcZFr37iuY9Wy8IPH50nb3f8y69ExDLvCFw5D3ElLq9dKS6PQg7kD0kfb+8Hb/lPCM6uj3cwIy9U4bmvQZSFz0NOOQ9EHnDvX1DAT4JXog924RoPoEsUj1xLlg9Try+vfT//72irMq9O4nLPTfT5LtI7n49+zyHPU+KJ726msA95XXWu/ygQL1eMQW9oWj3vesrjj2Y1+e8lALAPeAHiz186Su8DEN9PZ/SwD3G0ZO9yNU/vUqMrDyCdxI+NVkkvS4Bdj27Kgy9JA9YPsPCwD0jE8k9d1bTvabl+L2F+qO956OxPX5h8ryKMKE8EZOEPSy11LydZCw8azXCPUyc97wyKCm9BrG+PKsPkT0j/AY9rE37PP3fgz296Na9YnMEPbCWE7z6Kwi8apLfvMZeMD404x0+Z/J3OplnsD0EI5W9RFU6PodDljwR+zA9U5VPPYaCbr3Bj5a74+D9PU40u7o1n425b5DXu5k1hL0uInC80bYrvZ59qrtT//I8WVGRvIGBizx3jcq81CeDPKWg0TyyrhO+sVmVPVllPr2FfLQ9M/IYvGdJET5M5OQ8JrabvT1onjqNgnC970+1PTF2mjxg3b29t/CYPSKjSLzSfQ89SUBoPdH84zxaTpi9Uk2SvYug573Ma9W6lf6EvaL4tDxbepa8DnG1vLfKJbz8/Qi+BLrEuo8FoLvDOoa9NfPOPRNwlr1e9vK8wKz+PGALJj5rEVc7pT+pvcY9eL2dxpu9Ldw/PaKV7T0tohq8L+8EvTK0kj3utYw86C2ePK+7E73y1529oNOHvbOAQL1tmNU9DLPFO/Rb8LyFkXS86F6kPbZ86LxPt4+8xB6XvUOkSz37a5e9hnapPFW4lLwFBcE9SKqZPSXf6j3WAPe7BhWjvPLiM7xoZbq9m1V/Pff0d7yOI2m9VoQwPWUNyD1SoHe9xBUjPWD4ETxNBje96he9vEjvqb36Yr68btlKveUVwDwJZuQ9qHJovF2TWj7Mdms+mgAzPd1Tiz0WCxa9o4RavkbxUD0Hpck9/dIbPOglPj2K+Fg+jBL0PUHkjz2Zzw09btwKPg4cRL4Po249/lMGPveHGb1aHR2+a8w0Pp6iRj7xjow9/6DDPc4v3DwkYxS+8GpkPQf3nTyCoMs6yOdeOYRr+T2uTYs9MMfEPfaoQj2ZIpi9SuZcvQowoTyW7Ao+LnxyPS9XUD2gohY9qdBKPS12pTv/MY+9vpUUPTKmkbw6Fke82PBdPJLDmzwdzZu9pQalPe374D0dRyE9TBwZPZ24w7wLtPe9bMqfuW1cgj1TlLg9xhdlPRu9Xr4/F2G+nNS3vdWcFL2qHIa8i1onPt3k47wjYdm9bXrNPKzSij3BapO+4YZbvjnP371yUxu+8E2UvVBnWj4qRRS+ZxTovep67z3V9sE806k5vgkExb11Yz695ebPu59qC76VV3E90ZEEvsdDqr2rWZY9psz4PB8Pbr28hvY8EhCvPDoSlD17ckO8f04xvSUSrz0Dg9y8y79EvZB9DD2v4je8iOQ0PdtiZL1hkag8H5BRvcvUj734lKw9XGGOPQ3jQb3ulUe961t8vXpntTuEYCW9PJoPPbsKD7yGR+m91bodPMNh7Tw7lpi9wiSEPX4peD12jgI+kWIvujxgFjz+xzy8F6l/vbjz/T1Fup09so+HOz7jAr101UM9714NPvfNizyudtk90yQHPojNGr6nMyE+ip7NPbs1272JuIe9GmpWPT7G5zzOCHM7lwAyPZw94z0lQwS9cvyBPV6Aj7vQo+O9vgoHPqbmHT3SEYy8uDGevDB3LrxODRe9rFzaPJsZsrwzERA+8I4sPbbThztH+1o8rNU7vF7GFb3JOzW9bjyYvcB1EL2vlgE9JuTjPBqRa72wJMQ96QEhvVHJ4Lpig2W9kmZMvZ5fCb3V2fW7wSodvvYZgT3qeIM9y/ghPMYpMj7ov/E7+yY7PdxbjD0vBKE8XirwvJgcfL0vdf09EMx5PXOWMjw7qwa6XkdCvXBJQL2604A8u2gOvsw95DvyRt296XWUPX0bBT1AU889NEhvveFUm720K3K9XHmtvT+30b06iw09MSxRvqFV9z0LPTs+bqyxvEgFjj3xU8+86LzQOzkTXT2iroK8VgBpvaGzaLxd9JM9iDKoPOHlSz3J6FU9pGYJPMdK1r3NwWQ811rgvTHyGbzxdMa9tsBgPZH3yT1ba8E8YZLJu5wMlD3+ZhK8ymEkvBjMLT32bWy7AskuvgmYrT38eks9h3Fhveng0L0cbY+9wpi1PETpYz02wMY9J+VlPZvEwz1FJL+99KyBvWA/D71UT2O97D0zvPucsb2DVVq90a/7vAiXiD2ErBG8c1VrvJjkPD28ARK+PkyqOxvAzj1vg789kn+kPcKcED6Te3W9QfciPSiy972e52m9mQwXvlzmK73xVr68n8ywu5rBGD27ttk9dm13PGCNET7iBYO9onicvYLwEr4uJHQ9oqOIPK+YLbxKk3U8v99cPPaB4DzLmNo9emYOvVqOkTv7uU6+QqM4PPq17DzuIdM9dgBMPrFDKT4KBIm967aOPaQGoL2wsbS99abrvRaspb30NX69GkOevHX0Xj0YG8s9bA8iO7rt2T1+7I29Wc0tvd9p8r1VbYK8w9hdvAKl7b1JZZM9i+sZvaYd5jxTSoc93qe4PFMi5TzBeDG++El/vRkg/7vqgxc7jH0zPqv9Cz541kK8VZL6PKFL3L1Le3O92uCDvWdAar7PVOu9/60FvtxbLb0xlPg7TR8SPgM9xj30R4W9RJdYvbhcc73xxTi+JRSxvS8PPr53gxW+mYkMvjn9dz24VJs6CRgWPbyWeT1khWm96jSZvSJHhTzG2ay8aJl5u6urCz2bW0Y86aMBvL5ltrxMh4S8xSFZvUhS671VHdS9FAk+vYYJnLyVpJQ8PgGXPYMwwT3eW908Nxa+vaeq1rxMNMy94pktvm22WL6gL8K9wpkOvgc0zz1K9IE71ytfvSKQVj0+1CG9hy/rvf1wBr4Hhpw7l0iRvfPIIb3u2389on5+vV+u0r1oaPI81gy9vEr1HT5Nuj4+ZXH/PcZAID4h/gy788fqvaNTJD1NFqU+xauPO6KpGL1trCE+2n0/PYFGpj3TLv09IBFMvWGq772icIk87wgIPoJOizskzpE9brX1PPLorDzSBJE9VHiwPaj5F71lA508OljIvajWNj5r7Zk9g9l9O7xXYD4RHXg+PC4IPn1xAD6pVNi9knVlvlIk0DkPS2s+V4rmOzNBtzwtw4A+Z+UjPrNA3j1ZcQE+tqpKOtwkRr6am9k9HfZmPtccVjxcY9U9ZhLyPfXbiD3jb+c9BRk/u10vmb1I7BO+gf3mvV8DNT4NEig9JPSPPUJu7Lz2d4C9DckLvjVTgr2lF429CgjsPVVEOT3FWYi7KoBxPWEhpj3rxXG92uBZvI7bAL78S+W9sATCvWgRyTzpW/G8qQ3cPT7PnT2BoKA9sk6zvW/14by3euS9vNAHvptBob0fFNg7kVCOvZW9nz0dCJo9t8TbPJ8ghr16JWu86qwPvRhfL71ombS8zN+8PXCzLb0/mv68JZvVPARQnj0M5ZG9S0qMPQYjlbwQqqC9qhHDPTyCcb1CDDu9lBxRPXQixDsJMXi9FRwFvdg4yj1YLq47QLMVu+ouhj2B02C9jIToOrDMDj1eFLM820vQPGJEAL7FfVu9k9LlvXNjkb0Q5Qk8/xpuPLLWzb25zoO7DM4CPqVPrD0A/cS96X8TvWyy/rzQgwa+4YzoPaeF/T2mzHC7itkGvkzKLD1AZTq891RevSnX47x79pm80u+avRZviDxx7oE9YVYjvasI8L1Ag689YBA8va3KHT2/0iE8OJIyPUygpT3m4tm81pcsO0p5gDzCd2+94dbNvMiumTsA0c086kUsPKHxMj0Amzk8yOngPdT0yrq1ro0966wBvpAWtb2ewUq9olvQPV/HoT2ogkM9AyqrPI901LyeJ6y8KabnPeA0ML3aZbW8iKacvd1XAj5lZIc9xmisPa5W/z3kLj291lECvUcbBj5A49M88xXevQR1Jb2AyiQ+Mk8iPQ2nJT7KJ6M9TA0rPiP81L22rkM+2IqHvVrUH74GWCm+SpUDPsPXzz2wjRw+HKopPmi+/DrcVkO9uNEoPrAP3Lx97ki+5tf6O28fJzxojL29ItNQu5q7nD1YnXq9N4W0PNBhRj3pNI69567ZvTCbfTysYTs94XO0vYq5P71mkXC9SzAYPh5l8j20RsM9cjgAvlhthr3tJ8S90yWxuw0T6L0dwmE7+97fvLTTor2N1gA+y1iIPR13K74k36+9TBFVvZLAMr0gnzu+oKaBvTfERDwdq7K90ZopPkbLNz05zAG+gTCHvWyZXD2q0EK95sU+vupdyDzweJG9Yt8gPhNYIz6R2zw9uHb4vdlXi71iNL29Cmz4PMccG747+iK9p8GjPIrgnL0VmRc+hnjLPAce272z/7K9mjQxvbbhpj2Udri9JfSgutyHAj7OKpq9okzEPKDTVj16rp88xmp6vY2BFj7WiQA+lo7DvRAydz2oaVG8XEIJPmk40D3GHgY9DbCHvRODuL1VmPI6c46vPUakgrt9zQw9PRPXPDgMf7ynG/A9rpRmu1ZxtLvL0om8gntLva+ITj1gq4i9A1xCPdaF/j28I7O8FGCuPbTogj1770q9BMTBvWt/Pz02sR8+FJilvXKk1T3fMjk8vbBNPqKXsj2ydvQ9q/BrvQHLr70SlLK8FkTLPezZ6Tw8ZJI9iGWFPcarcL317U09pkVLPVhjVbz535K8AUpLPboxmTto7rg7VnmJvSt0GrwdO9S9O+4uvaO8yL25s/E9ZuXEPZDgWz7ZVFA982x/PRpO3ruKGAi+QXcjPWVIbjuLpOa9130yPkuA0z14/qs9OIqSPWzWSj2zvfO9sJDFvEc4Br7E5Xs8j3PmvRYq8z360Ww9ZOWMPY0Lrr1plKe9CtXLvQButb1MWCC+HXqyPJIXEL5DvKY9MbXGPVjCjT6LnDe9OB+7uq9ctb1FZWa+I353Pc45mTwmUU6+k/fnPZd5sz3YsYM8ovWzvOTMaT1YMd+9SEWAvRGbKr5c5XQ9HFvWvR0HAj5LAQg+vZlnPYlGnr0S94q8fABEveo91Dzf+xi+mqVsPWkDhb2FJcw9iF36PGh+HD5fkva7QS0FvVRzBL5T+TW+P3bxPKJgZzy04Qi+mrCVPSZkIj6MiPa8dOSEPHZKAD1Jaea9ojPdvZptGL5eJCk9XScNvobuLT0ocug9E5w+PVkVLT7niw8+Bw4/PUEqaz1g5Na9PRVSvrcXyLzzR0Y+tNyDPLNGLj6Tli0+szZAPhYPnzx2kFq824zzPAH1Er47j2K9vThDPnNEgT1ulaW9MZoEPnzjTj6GIco8YV8gPa854b0/cEu+tfMtvBMuAT76IMI8bgNKvfRz9D0XKSU+tbvbPckkBz5LJRS8PmP3vdWBxTwjNaY9KuPaPNgPPTxVb/o9YphFPmYhbz2jMzU91AjzPUUsSL7qGlA96N/EPavyTb3P6A++bXZOPr0vcT4ATAA+puvyPYyAHT2+UEO+cbFvPUQlzT1Utzu9+wYQvAtDITvdh029Nl8OPeKvID0c7pu9aeUePKOknr2GsnO8mchfPe/j6z0uZpa9QSUPvT9TBL526Bm+Fm+Svc1gIzs4DBm+di4hPA662D31/wk9Wm7WvY6Tmj2byFg7EpVqPfBlSb0wSqa8/JpevSyJBTxlCew9Cl6VPTo5ab401h+++YwUvqjqnr1qUbC8NkUhPjLYGz1RCNm9TM6gvf9FHj4oKEC+0g0mvjGePb7MeuG9WzacvFEv9z25UJu8yBCmvdlPfTxmDD89kcgcvhKIzr3B70a8H8eRvH2tvb1gFBU9l+ndPDkenL123Pu6laidPXl1Kz37ZSs+4l5BPGxz/boayR072qW5vVYKKD5F+NM9bHfaveS+FbwGkYk9ISozPpxqlT1sHT49mte8PUFj1b2MzwE+he4FPmkTbr10siC9sS4NvesTFj5duOc8ZfqcPfU8gD12eRm+VMiSPXS45TyMObC9WN+dPQyvBr5pqUe+x9XVvQ2UZ71coP68bUEQPhQz0D0Vfb29J4IPvYXmML04xwG9LJzmveV20rzaU5e7SzYEPeBrBj5J0Yg9phe9vUW6CL7tTz+8LvUovtpvCr7xp/+9Ys0FvkbXz7zYZuU9q+DRvf29Lr3jrZY7n2ZevMjTwzzPanO9qx2EPSIVBD1Y4gs7aYH3O0ymDL170708j78mvXKwYbyuvys8YmOwvRkbwr14cAg9I07xvWoDkj19CQ+8PHP/u2vzwDsLiTE9lE8AvX8w0L34UXK9ntzAvXB0wLzGs8Q9G1oLvuk5jDxdsGM9sZoSvbLVgzxzg4C8n8SBPYP3pD0dHKA8z6+UvLuupL1PHX09phXFO1EdjTxH0xO9HKsHvWWRWr2bAQg9JoLzvaFBozuYoB2+B7EwPRKvnD3Z9xu8tsMNu15mvrxCyxY9fE2TuLuMdT3PYQ48QPT3vYTKSL3j8GE90LwEvk3rrrpDr9q9bnwBPn/IDD4MyUE8FqffPK/K5j1bkTi+3HSXvaPnUL2RC8w9UNcgPcL8kTzrOsg9nBAOPUhzUjxnCz8+QJ47u6ozEL4ior+9vwlIPv+FUT0Xj2M+HYdkPgPfWj7GlSe9NvthPlJF0b0iFjG+ahSyvfTS+71Fdzm+y1QdvcQQqzsIZGU8tWpbPsUJCT7MShG+g2nDvaleB77m6jM+2PmlvTBiwT2RfmM9RPurPRtfyD2YQa0+eS5lvdpgW74wXF6+D4ftPSv9Sb0dPi8+MR9vPnsxRT6mWBc9A1e4PjreFb6sFIu+jks4vcAOK71IZem9se+PvZygGzznHK081esaPoY34j3VTVi90WeDPb5P6L0vGgw+NvXcPKt5mDxmQdM9YiSMvafP8LsIAFo+2PZoOoJ4nryvmjm+gwtuPVzFeb2im1M6LhrnPd1fkz3HZoE9qZF8PqV8RTwjf3m+mN8tvVahFDs/ia68ULlEvVCMXD0zYuA7pm6GvRQEarzEVkM9js33PSxIWL0mehc+6o+mPfbsBrxd0Qw+4R04vM0CGb7BGAg+GUKGPe9xSD1Z+um9sFTXPbPDYLwAiFo9Y5spPg8s7jzMeGq8wirDPYBmn7wdAMe92a4BvkJdrjw4Tr29wvM6vVEYrDzTH349EUXavC+tGD4K5gG+TUDIvJgS+L3efgs+woUyPVwhDj2k7so9PCdrPaa0ab2f9Ro+SSzGvcTfC7wBYzC+w+DsPTtO+zxz6Bg++KB4PnkBMj7zuqG99Po3PpkmJ746syW+puP8vXqTGr4gJyG+mM2hvTtxiL1Glqk9fJRMPhInNz4Q+Ua+MQ55vBD+pb0Z5XG9f+vavauL9r3wigm8eARePGnQRj27zbw9eFA8vqdrsr01c0i+yHz8uupAmb3BgIA9pOSxPVxgET6/gWm8Z0W7PYSgkb489wm+zS5ZvS6Qnr7OXI2+eRmhvljEPb6hmSa8/ImSPro1sT0GgbC9iVpuvTjRND2l1qm+KG+kviF9275xvYS+21TYvRbMqj7dgqu9Pr7tvc1+nT0IK/K8Pc+evmJAVL7e6WG+T3QtvllC8L273FU+V/UwvhW4Db4yQcI9dr30uu09iTzuWuk8VDzLvWzfF73EK7q8Nd3qvCL8FzyxelE+L/WQPUimJbxU2Sy9z+DevNTAFb4eXDu9mgJsvbB80j2YktI8oTa5PbDzPT0z/rS8FvZevZf8Br6FA8y9kkVqPenXlL3j69k9BJjmvVYdnz2rkdQ9jbPdvcppfT6heEU+WopTPoR5Kj5ftKE7/TtmviZXPj7vC0c+k/a/vQcAqb2yb6I+PGuMPnoLeD6NBIQ+1KAkPQ/WXr5ZyE0+6tsZPmeVAb5+yj69hiB2PhAuCz7gplE+HjoRPu96w7yfd22+WdmZPH6mWT47e3I8VhN9PGdskj0pj9i8Zct8PVb9OT3JjAC9zXbWvAHqjT04TWg9lWMovfDxFD4zTpM8Pm4gPrPyqb3KFpO9R3tdvPr50r1LEZm9//4FPuBdxj2agPA88+5mPdtM7z2QaPI8iZiDvRB+eL0J9bm9qYbzvRJOYz6X1Ic9HZubvPFuzr3KmRc9aI6MvF/+2jzHksC8/zguPGUUYL1C/T68u+0PPjGiij3FzXe9X7asvIecJz3SxhK9bUT9PRvCKjxfKs+9ruaWvRz04z3zksG9swLwPPVlMD3a3mk9gHbjPLyyLT3f9d+9DnjQuRa70Lzk/wc9JCYhuxLKt70csga8faOquwfkC7374Aq9tb88vGz1RL0D8U47svwTPvSslj1wEKK9v306O2bknr39r3g7y60RPqFqIz0WQsK8QHwBvevkqrr4blG7UoizvZrEjLxaWE697esXPDXBgzxsAQI7BJ0gvP9RBb4JpYA9D/fMPKNIfD3KCg8+nfQ5PcpvQ7x81ci95jITvm5MQr3iojM9MyBJPRB0Oj1ptQs+V2jxPWo/9D1Qc3i8HTuCPVjXK76D+E895pP9PTADIbr5T569behePlOsST7Knc09otS0Pay3Db1Q5Uq+hggNvMk/kD3gSTW9fuIgPBLA+D3dUMc9IsCQvGLIlbjroay9dfUavqhD6bwXXDo+5dwQvDAXmz03yKw9g1OuPbLkWT0oC5y8iad9PfTPF70Q/ss86KnVPRZZ9jyD0o69M4kfPpZOID0jBJ48eFk+PdJSSLx8Bie9REXePEnqDzu/Xzm91zB1vBE2Db44blO+iQ4Kvg3AQ71Mova9QIc3Pq1Lmb0K8K+9YHB7uPmaIz7wiW29E4QpviPCL73r5o69NrZmPVfGcj63C3e9mXz7vfur1Dwaqc08p6sNvlF5M75ZFgq+WNqzvYMwYb36E1A+WgoIvX3BsL0d3hm9qBpFPUeWI72xdyK8fAvRvUmjXjyfovS9YyeQPalTob3NSnI9bdb4PYCQVj5Y66U86cZgvQH7D70IgOO9UGAPPRMAWz0CHDS+iwisPQ+AeT3lZbY8sH3cvF42SL366xq+uujNvfSE8b0xMdg9ccwuvoG1bj13PQM+TcRpPXZggD1BLYI95iMaO7DfF72/89e9qvPBPAdXmL2bqg0+OpPHPZ1aPT5YVfI9MGuFPSvd9rymavW9TwHXPSP8zbyLMym+QOwuPthE6T1tsl49MsnZPfW4nj1n31S9C0WxvYXVJr5ZDx69LhTCvetn2T35CAw+g5m9PX+1hb0lI2A9r3UWvmGX7r2aJUq+3qFVvW3nT75F1wg+Hi45Pv1SlD6Rzdu8QvWyPdjEDL7782i+EbQsvXVKrb0xh4G+mkN3Pm3cLT5slvg9Azr3PAPCsT1xUz6+ZInLvTOAOb5toIC90pFcvrj+Mz7Ukjg+pRFXPSD/R71mp6G9zhmzvRQXxr05xkW+pFuWPRGuAr7SoSA98Jp4Paiwoz5+O9C9UImfvTHN9b3a0le+9k6WPBfiwz288WK+uEJSPgkDLT45sg09c7ZFvVXa2DxaIy2+O/zwvbT8Lr7Xc7g9ed4tvmxzMT786xg+Cs5MPBmQr70Hy6W9WrvQvTppIL0V1vm9JQq1PC2Sprwh+h88F6OfPMy4bj7DTMS8FQ0gPFS5A7484wG+YCf4PJnA+zyGd5O9Y9ONPXSEbz3D/ZC8eg7BvBqV/Tqf8hm+tx2tvWd7N77b24Q9fZEAvuW3/TzEos89T14ovcT2BD5wbKI95TRHPWN0nz0nwK88FXHgvfj5ljx80xY9TbF1vazdpD1Yf1M+2evvPe++xj1EbC89MikpPqrWML6BlDS8CWgMPj2WR7z+KEy9Vs5JPrUvDz4i/oM9FbACPlw1jr1HwkC+pzIVPG7ciT12czu9pfsUvLw2x72t3gK+OvKSvW7NLb2Q27e8EanhPRbYBb18xDC9JahaPfrUzT3zpLG9G34KvT31or3/Qv69XMcNPVuweT2Po4e9ErEkPbDMgz1PAqW8kMmiuxjxZD2VRSe97LEFvZQLILzb0Va8t++PvU9lUz0MC2Q9FrF4vBqVKb55RTq+d91dvXX0j7ySbES7OWz9PdbllTyUOCq+D8OGvYjpXT2zs1y+akLcvSwoA74RX/O9DYOuO3Q3GT4sCyG8gZ6VvYzvjz2wFUK9QIvwvWOYxL3Z06S8STe5vIIn0DzdQys9qsvSPE0vC71aVTg8K6uhvDG9Qjxe0KM9074zvfdszrzKjvc8bT3BvRsVDj6k8FU8TmlRvbLiE719kYC9XFKTPc/vML3XvQC9Rts8PfDdzTv14BY+lrvCPSdoob3Fc4G9WbzAvc+3mrx0To+84BgCPe1cGj0XRGO8UHaIPc3Pkrs9eCS9WneJPaaSnr12Pow7VGyEPCQ+rr2gS4k62M9luFpNzj2NvEY9Qt82vWhcYL3FbNI7YzyYPKVOhT1yLE89uRl7PbsMJrzwjUQ+QVFXvVq2br2txoS7NjbrvEWVybyUlbG8ndWivA7k4DtLjW89ZFiqvKLlH7wIFxK9OW2FvEr7krsaLa29mufUvSgQDL3Nvjq9NC4TPgNbkD2OFQM7SB0pvdkv3Lxuopa9KUTevUI3Fb7GSN+9iBDsvVyaCD5HPFs8voaCvfwnFb1VzIo9yEYNvuI0Zr6/AQ++euc+vsRcib2OZxM+4o2LvWpmy73LNWQ7BigPvTnFrD2EWrg9k9DYPdr/Fj7KrdM8j9HBvVw1Fr0p7Mc983oGvPrmADt5I6U9+V/TPN71trwbkm09vH2DvYg71b0Orva9SqnDPUpLwz2fhR+8vabyuw1vHT0stJS6i1xJPXYqArymloW8A88Avfo+hjzDmeY8kg3jvBz6h7y7x9O9VNqwPdJ6C71IWVW8qCX7PdIPHT2myEK94Ju0O+kLnLyKXgQ99o8zvGwrUzxUkBg77mF6vYgTUDxr9YE93n+ePWAvibtfEt+9fcW5PV9UpDzHpq09p7kNPujieT0FCUo7iyDaPb+1GjvThwu+gOaUPZM40L2ebhS98ZCnvZ4wJr7wLEC+NgkrPZMsAb7Xc4U9NPwiPpttLT5Lwy+8FwoJPZFEFr5IHVa+zbZJvtNtED0bm2w8vExyPhMEbj0oy6o9Y6kkvatGczwDdo+9EZc3vaQ0k70RTxY7+oYdu5bk6D1cq5K9RJtbPvyA+rw9Pxq8hKCCvpOxk74W8ZC+984+PQJyl75u5Vw+3H94PiTbkj5ABJE9NI4VPlqJJ77Y2Jy+d4Ocvgu9Db6ixXq+ozHePpk4gT6f858+yhCOvVqmBTs8jLK+NCiVvrbKqb5Xq/E9ZWWgvnBSwj4gjz8+B0M/PpVZnbvOlyM+TCluvfwQF74O0TW+zKjtvccKSL4MZlw+LkmfPv3Vjz7VUw0+QVUtPp3kHb7hjSG+XyqmvtzrGb5cHmO+JxG2PgiFLD56rJo+Yn0ZvoLZUrz75qu+wHqJvkNsxr4o5GI+emLAvooExz7Lw4A+BVWzPeU/Qz51e50+qYFFvXztIDxSsme9RUtAvk0kAb4HliY+p8IhPsc7Fz5/Kjc+MA/BPusLw701UoO8qu0cvlPzhL4vmLS9352BPqUGlD3OBA4+xcsFvnmGpTxJTYe+h7rgvfgEUr6wuzg+hh05vtEBTD6tC4M97DOFPRAq2D0hT10+QgWQvST+Qz3EHYA80r9AvjSpPrwqZvI9/LS8PG9NDz2q6hU+vOGdPvaHh702WoU7ZyiHvdMVkr6Psp493ms6PorZurxT+Pq9BVqyvADjuzvHgiK+ummPPTdJibxexfo8XuS1PaQlPb2D0zi+rsCNvUdAgz0KS9U8+SSuPU9fLz55Fh0+bEFavUVKmz33HfC9XAqZvYppQ74e6R8+ojXLPSFX+j2njDU+uoQMPo0ZHb5OA0w+bv0Tvp/9vr2YT5G+Qq4bPn9Iiz1TKh8+0O20Ps7xkD5HmPm9B02IPmKKkL4KaJa+9iGEvjbTNT1GDp+9FrzzPRt5Rj6FQGk+8TvJvJGETz6hYyK+FiUnvmXGfr4P/Zs9osyBPIu9Bj06ikc+G54nPsv45LzLX14+zjxcvohKBr6V20e+rtGUPXai/D1K8Vo+xDOXPm2ekD7/oUe+dl9CPpBber5I5SG+Nh4cvswOnr6lT5S+beC0vjdybb41PEu9MvGdPnOpyT3kYxu+EYSsvePYJrzND8m+HXemvokP677C9p2+NUAGviZvwD6vrJi9orBLvsqXsj0Q12Y9CgyCvpp8d76Ui56+pUwvvkFODL6iCJY+6XXFvcjOJL7vOMQ9qBu4PKNXr70H+cA8gj4MvgMMk72X2RO+aBCtPOsk9b1u8jo+O+PNPRDiSb2rjz+9b1ZGut9fi71C7dk8MmVovSVSkbxI6A49w9YCPt+VRT2G0OU9KUsgvX/JqbyoZ1Q6Clr3PKsAJb5fTDE9043tvWqHDz7bq/s9gYLTvBHAir2Xici87GRdvYsq5Tx/jJy9okUkPTG9hT1kyAo+QMoZPW+ugD3c6yO93JrFPWJ89LrQ8eK7A8A8vX2RXrwe4j09pM5KPiOBXrv7faY9BOuevGVTZjvUidk8xP45OnyhF769SLO9rgpmvcJlaz7hkYE9MLw6O25Xjr11koa9ofZHvV22DzxSZl+9QbwaPceRnrz+x1+8pU4YvA14CjtXmgO+91VWPTzQ37y/2AW9m6+hPc9cCL139K+83yNwPWK1rjzZpnW90YEnvZyx9jw+kQ892AWXOUZfST1eYsu8Tvs0PdUhXj3IvAA9V7irPMW7D76IFBU9UIcLOxdHbD0o/q29ju0XvUoUo73I8T09SQWyPdWbxT3IIrS9aWzLvCYVjDzZE+08ALdBPTn/oTxIDh29ebR1PDVMtD1BMJs8DGwPvRiAobwwVvM81VndvNiHYLxbXWk8HlzGu3oRsL1AjY49ThLAvPSMNDwVBYY9ImEcPUT8rj2YIqy9bYvzvGSEJr3mzKI8IkWSPYSZgT0+hi8+mekDPrMyuT1XEyY8/m/PPa7w771dAmA9rq9nvbcOiL0h/6q9dhgcPnHS7j2r5Sg93DStPWWa/LoT8zm+Waqtu/qeqbsjJ1Y8S1K4PHF0Sj7rpSQ+nizgPaNW0j0tobi94DQlvi7perzJtFs+tk2wO4gfxD3tKV0+Bq1iPhA+Ej7wDFQ9q60HPrW2Rr5IVTU7r9T9PYMYN7wsB9u9pMuIPnD1Jj5k7uQ9J9vEPYeKTzyxlFS+Ii+YPIhCGT3dabm9iDi1PeE7wL0FWey85J62vRk6Pr3F2xy+n+0RPV2Q0L3uV2U9bpTgPV01az5vPgO+tpiDvd4aNL7QPWm+QC9IPQ3HNT6nR0W+MqLTO6mKwj0M1Mc9Ct0XvpOsrr0cfTu+oJ0pvjq/Mr4v5Eg+w0wQvm5Vlb0yyfo9BTvAPQx0tL3N8EC9XqDEvbwx27200Vy+XHOfPbHHC76bvfc9n9UZPnDycz7aMra9isYFvP9wwr2VcGG+Y3iXPHE4iD2L4B6+hVQWPpA7Ez7hGnw9DQ0+vXg2S721fxy+TcO7veXUCb6CTRU+mqBAvn+Kuj339J09eVYePr3OYrwmgfc9s3jbvWTlB77k71a+WRODvd85Yb4WHmA+K740PkmgyD7/kSG8q1MLPquF372rfYi+wPoVvSbJd71qlXe+R22dPi5Wbz4ZIEY+L6NMvBIp+D02/zG+m4UuvugKjL7J4YC9L6yOvtBaND54bDg+eIAXPvESIb777ny968lJvugGG766r2q+BFJUPepNFr4cJ8g9SzwgPrYa0z6tmvy9i8rdvIcqiL5L5ay+GEMAvRD6Jj0s9ly+V9MYPrlgMz47EuY9NPKevX6oU701TI2+BZKAvvsKbr4CMbU9I9dOvpnxCj55CWg+rQG4PdkfN741HEa+WCxVvpA4JL6ifiy+L3xbPs0mg73cxWm9DbrHPWj9kT5cmC2+0gJQvuOgbL50GqS+ndKjvUobXz4Flya+ahSsPGof+T062nA9Q6pnvvO6TL5v3ZO+k0ZVvqQuTb4VQIk+TvU4vnOYJL3R3g8+VNe9um/Rl73MYcO93wGGvdMJVL2j5M29Etl+PWuLZ71vQ4M8W4D4PI+jOj6iZUe9QnOUvOQvFL6r/Eu+UJPDPT/1aTzwKlO9j/BHvfu6ED3Z9iK9+o/uvX+dyr0w0m69AoEqvR5V4L2XT+g9/ZyDvLECN730Fpc9fmErvadoRj6O8hY+drXaPWlUzT3DBpg8je/qvQOK9j184bQ9HFRGvZhlSz3yDFA+Lq0SPlHrGz57wM494UI5PtTdcb5tHqg953y0Peufib041wW+LOx4PrCxOT7HquQ9NJkVPjkgBz1eShC+yw8CPn0pnD1mjNa9tic8vaRan70iTo+9HnchvbwPkr3uIpu83mZBPQcIyjx8BI29wwfxPIB7JD0t/sK9ycpxvXMQqL3unqm9r1tgPevZ4jyIcm+9QkgTPN25jT2QTc+9+X6gPOL8lD1qwDg9ZpQmPaRgQr0F9gK9pf+7PAl7ZzyMD4I9g+UBu5dgcr4AnZ6+CaERvlqJvr0cmy47U4hxPgwfpD2Vu1S+ihJ7Oyrvk7qVz36++QdWvk+jN77TPSK+m3bZu4tabT64lb89TRNNvkozJr2LYhO+OZkrvqxPAr4hRSQ84Sx3Pbylwj1UvYk9xCIDPrSUQ77NYVO9JJfUO0O4vjxqAzk+90y6PRaNgTyqpDo8mvEyvoDTAz7Trko+YgprvVqHrL0sIAg+canUPcAJ3z2vMiw+zlMBPttkGL52Ujs+ToEcPqCBzr1af8K8neVkPaq5AT4HU/U9v3/CPYC9uz19aI29dJsfPhYdkrw2dsi9xgkIPXEfgL5iaF++iCpCvqFhKL7MIaK9z4Q+PtPOKb20eQw9m8/FPe5Ct7xxb/+9UoVfvkmSF77pGAm+0uRivYT9DT6+lc68qd04vB+o5Tz1i/I9eExevtalJL4S4g6+0V1Nvh2NRL2w7yk+ITUPvrte5bygeAQ+l02hvfajiz2hjaG9EQIkPdfFJz2kt5E9jQm7vDxmzzyqARk9rQdhvYOeyL19d2s9dRMcvXCpR73omfg8Vj4VPU0uVbz3HiM9dda3vE4jGb3k3K07a+XgPI4PFzyNA0a9WSeJu4UwFD1EIX49c25DvRPVwr0UtMQ4+SyhPMEkCj5y3po9cPe8PS6Bhj39mDs7d2EqvRpZBL1CrxE9DO3HPN4NMz0wsqI9nU7vPdEnibyBcVc946+ivdBdg73Go508sOYJPu0/iz0MhSy90kerPWnUHD4DOOk9udUAPuYGwDzENdy9d6W+PBaZjrstPKG9sXkxPj08ib0EyOk4jtmnvUwiEr67Ke+9aqyVPQ395701+yQ+FLsSPsRTTj6kZw891UQcvQpNPr6BO0W+TTpWvunenj3Ok4u97seFPnEzCD6Fwjw8krtbPKIrFz1Gley8UyltPNm29bwL5nM96LIOPbTo7T0Rewk8yXIrPlE3UL5h7eo8HlXHvd3KgL5qLh++YKOXPQ82S76qsjI+BcQiPhLRdj4vTEO92RYEPu/QPL4pp4S+o4g5vqr17b0SOi2+bE6QPnlx+z2TPDY+rMiHvbJCwT2B3hW++sAzvixEdb6qFMo8KMUovicMqj5HhR8+AmRXvhMrdj10Y2c+cjO9PpT4kz7mv8U9nUEUvtqUsj7dbRC95VM3vh3PUb6lGi0+WH62Pglm3D7dkKI+h2NaPlvIrr6tUcY+GFq0Ol6+N75Nr0++ux8ePqBEYT496bk+mZ6hPlNYjz0Akzq+9qWEPtHUr7wnJ4W+FqWIvsEv0j04f1M+Tp3CPmk86T4Jh4E+AF00vkTp5z5a54G+6JiRvqFfN76gVgU9Js2CPuO6uz501aE+mZFuPmCjX74wim4+O1ccvuqETb4KroG9N5A4vbx+OD759u895lNyPqsKsjxSY+y9PnvXPNzCNjzjg7+9AKiIvlF7jT4Lflw+xJGiPoBuwz4Gop8+R4oJvquKwz5hjSq8b8mbvtfs7716tPc9ss80PvZm9D2/cWA+n4EmPtQHI74lmj4+uikKPbF5Eb6hdsC9W2jgvaLRDD4YP/e8T5eDPYV2h70yHw09UXqDOxas5D1K4ZG8qA1OvXc2bj6Z2I0+x2MMPQk5Wj4/Rhs+rYceviiFFT41MV0+98MCvuYHkrxPiz4+7y2TPpgn3Lw/evg9CUdfPZYJZ74UVy4+jfyaPn6xmb2V2KS9RklVvRJUrDyO4ie+M/i5vNRojL0Hfcw94G4GPPoFTD4FSZi9KNMXPivCSj0384I9EOALvtpYRTxWiyC83rv3vA/M5r0/AQM+EdqZPfmZKj6m5gq8GJKTPSH1ZL7fdOy9pmf5vfjPKb3Ulb69qFUvPpW7lz19OEk93bPgvWNceL3vFni+qjiCvR3usb3ictE9CLYRvv0t9D2F1eM74UgIvsuRHT6fYug9HU4ePtKnWj6E5VU+PvNwvntIrTzSmIa9akm4PEXLPr6jUXE+oElIPmJH3T2TQWY+EjQxPtvlm74PjCA+U6GsvcE72L1VyXO+e4EVPsLfXj7U1T4++hmuPhdkQz7YwoG+0gMSPlpYVL0a3u69L/xVvq2Nq728haq9H55xvWW7kzxYHS4+gGYdPQSdQD4fhX++fZ4zvuDiLb6uQAg99iICvc3Wk73Q65E9WdR3Pf/RmDxu6Tk+Lxc/vm5ffbwOshy+SOqePEuprz04dq49dZEbPrqoAD7QmA6+B35CPYa+B758oN+8/dv3PArtnr7HoUi+ibjUvp4Pvb4rqBi+zH9lPqXWG75MTtY7LGkTPrTjgz2S+pO+oe9pvkQo377eymO+4zDivSI2aD4V8w6+ARdPvTNp+D2IhoE9fipZvj1KPr5ksoC+45NVvtbRg72UGVk+mAYuvu0PAr5B7XI9npPhu6U1jz14tA09JI3EPSe1Qj2PnCe8aIujvUqVmD1JZWE9r3syvMHejr2Q4d897dPRPXfPLj7TAlE+Zp2UPCMs7L3VlD0+M/pqPeCmbr1euce8w4m3PaUeOjwPi8g9zUAZPiv3iz3lwu284YIZPXs62T10DEK9oD+CPfsbxb2iErS9Md4JvlgQAb7Rx/m9xrnnPcNVzjvwTfG7sPqJvCqKzj200vi90//eO8QdJL7Nc729+W35vUeEgTwaCWu9xIYuPlCAtD0jRe080cUJvmPjE73QSJa9y4jmvFEAML04QOE8JjFSvEt86D1Al90888IEvX94M75LUya+S20JvkSRU72VHw+98AQkPq4kXLrU9Du8yun7PK4gHz2QbTG+5m6PvUb0Sr2nsnS9jyq7PR97Dj4lhKm9J2MpvV+dn7vSW7W9Ui8QvhRd1LzqvfW7S02Ju/7Y6runCPM9QMEKvBYBlr3Zfwc92gMsPTfXS74rXPa9J1fJvRRnlbsF6k29N8eWPcpfg73ouAi+7lRMPR5QHD3Ea5S8va7FvQTho707Jso8teC1PYcMqj0SZCY9yCTbvXp6br3Bbs2950hQvKfMOzxkNDo80X6MPTgg9Dut/NM8LaohPC/TE771XXa9YSkcvSQM7z0hc9U97L0fPbc02T0+sjC8gRfIvbsa4zwkkKY9hpQjverOWj1oqns+RAxHPmTbHT6RtG89KPDkPYidS76pFqI9mfdVPQJyJb3BxM69VvhcPthzaj4blxA+8lwJPmCJt7wZTxC+jkK5Pc2KjryTgOC8Q5AdPeW9Vz2nSt28RfRAPO8XHr0AHgq+W5n7vJcGwrze0io91I4SvDiPFj7cvqw8XGmhu86XhLvg9l69AIqjOyHcXjyODbG9vAA3PUIsKzyeQvw8+L4DvR2BNb1btqC9sKOlvYk1570UUpw9rfMCvthWh70aYlo9FmxjPbA3nb1/AIu9M5kSvjAnKL1uGwq+GCoIPqCRpr3tdRW9Fz4jPWfRez6CBF69KP4LvtSLCr6STTC+gGzwPMiQuj17UBC+zKj2PCQxjz2gkCA9pbPbvY3jzb3UcR2+1HIevjf7U77S20A+dMyuveNVj73415495H08PsmnQrvGt5Q9M2/dveKfzL0mLIS+ODdBuzjcRb7rkYQ+M/45Pua8zz6oajm9OvFqPb4sbr5OxIa+Sz4oveBaSzvq046+oKafPuc9jT4iGT4+K2k/vbyYnD2OkiG++1UsvpYPhr76vDY9yKNUvjZkRD4GX34+wmXBPQUe/L26WUW9HG9VvmG45L33i2S+0/U2PcDoPr7sUkI9PrAfPh3Xtz5XywK+v4zDO5iRc75MMqm+P1nTu53hqD0y2Dm+GRIfPvfRQz6UVRo9kW3Lva8+Er16EFq+dpiGvm3nab79DY89OlQxvmp4+T0Trgc+vXbLuxp3eb1YlLq9iDievU2Ewr1rQ7G9C46fPd55OL2vmyO9F7/LPRTmMz5X65691IGkvF1gBL4xCz2+JuI3PfzWpz0UKzG+QzkJPHzOeT2J8tY8yp8Avr89yr1vVD6+a0dCvo/iQL6n8eY9GH4Ivv/eVb1m8f08gjhqvWz6qD07Ux0+QnWrvF0gxD2x3+O8F6vvvYrjn7x26FA99oCLPBJHwT1WZhA+0+WVPZCPlD1o8JS7Ce2YPQmaLL4I5LG7YziEPKsixjwElii+C+/zPe6oBj6ygFA9GMWePbcNbDzPKw69oDL9PGqJhL3wfCO9CUCmvc/9JT5TUS8+mmsQPpr/4D0dDmY9sLYnvmfNfj1p8OA9UcfYvVfQMj2FnIs+EW2DPi8iTD4YBiU96jPxPfzZeb50X688K3XOPXG7jL2Wgy++Am9tPhvGXD70Khc+ybAkPuAZoz0S9U6+hcQJPjFenT2NSFe9FD3OvGDLsL0FShu+r1RyvXqzsTtD12s8Mv/DPdRAprvEo9y97PbqOmX1Cj40XlC9pbnhvDGZB71Vta+91jK3vKM/bbwHmIO9sbpUuizbtD2V1a65auYavFyyKT2a8Rg8FDs9PSxSET1a2Zy972igu62QMD2frag8CJiAvRqOmL6pka6+cyTFval2N742/Ia9ewyZPkjznj1k3Cm+IJzTOn5/qb3aoVO+f7xZvqDuPb41Fy2+8dj5vGnvRD4b9Q8+YVghvrablb0YT6m9BU3/vXKWCr7Pbw69SdCoPLetjj1Tvrs9fggSPlx6+70KNdu9RIHPPS3X4z1GCmc+JGmmPfh0mDuAvjG85BVtvgfaNLzK2YE+MX79PNZGhb2sihA++/ZRPj+WVT6tIeQ9mPkgPOnvM751Efg9UpsIPlz5Hr00CtC8P8DBPR7vJj4AENs9+9PlPTadGz3AZ/C9tkR2PNdt3T29Cwu93MBOPDmNBL70FKC+43wJvqepEb5QfwY9pWeOProWVr16lRK+qhobPFx8x72Y4y++uEZKvtFdNL6/jDa+wkxbvVEJST7qhVK8oLHUvfj4Jr1OeX28X60bvsyWE75/cfK9lEsEvrcl0byZBiU+Lk/AvesP4b0BGsE8PXQtvfR4Aj177CW9zAKcPe6FST1HqsU8lz50vc2Qb70Dsxm9v2ynPM1tNL3y5JM7ZUjzu5Yhl7oZIuK8iGMcvVwTpr38kiu97x7JOWZarz2mUCS9mpV0PR/ILT0CeYg9HNIuPf6R0jyDqoS9OKxTPEBHIL2jDke8wzRwvPvT+z1SnJU9ItLQPR+rBT1t05O8ntsdvXI+Vb2Kuc49xnydPank/btnlg0+HZUoPckH5Dv1szO97elRvbSQ4LzKIMk7DmibPYc4wD2sah++4HAoPkT89zwwXBQ+EEtlPfQFLLqwSuK8lKWJParXjL0cCKW9rRxRPrxgyrzoHx89Bdz7vaZIiL4MNx2+lEaeuGi7NL6xe5o+dWQ1PmdghT7w+UW9tpchu3FkT75bm4e+LzJdvsENXr1zUzO+x+O7Pk5jWT5sAgk+N/1mva20Lr00LSe+EsQZvtptUr6TY8M88SUMvsx5jT5Upw0+NxB9vuZwK77wg+K8+WuBPhuhxT3bg5I9pjplPcgQiD5Z3S++pWwZvk4BC74/rFW82zcOPvbEYz4NU+w9ToYwPq43/b2ruIQ+ZS/TvRoCyb3DoCi+gm/pPM7t1j2gY1o+L0oSPuEHlT0bTCy+XboQPn+6gr1Njri9W1PkvpJvx7118LW87ubAPjtZvT4QT7c+fNeKu0yS4T5cRwC/YU6svnS2sb48+DO+aPCLPXaIxz6iBKM+ItTQPtvkm70Y6sw+37T+vtNJdr5z+ry+YTlyvUaMPj5PMo8+JdeFPjdWXj7HPRS++M4uPhfHUL4LpcC9oOGVvqrAeL4xS06+T43dPZKD6j3AFo0+LUVPPsGImD5R5wS/SyqXvr7aAb4437O+ulMHvqHbUz2K69k9MahqPmTR6j3ffY89jf7wvs5bT70wfzO9hK2FvpuMWD3GNWm9XaO2vY9SHr1IF6U7aDhRvhbB6bwZloQ+6BHOvYkD1bxrmw2+0GNUPs5q9T0sSCw+t74tvRcQ/T0OezG+dEsrPNl6xDw2m3O+xUCWvW3SnD2Br769u8jGPV7Fhz3qJTK9Lxc+vgnabD04lDk9iZR8viASkj1QIsS8REonvm5XAr5FjyE9R/w+vrJlBL0cPHg+Q08WPhvVIz6f24A9SzfTPS3sYD0ZZ2K7Ft3YvSEFhrrTaVU9I4rbPYkEdT0CRz49NWI+PfwqcbyPDje9CIilPUaR/byiXj69uUtNvM6crLwmmGw82AxdPKAOGz3Uu8O8U/S0vWLbmL2+DpU9/tPhvZcBWDwfgcs97z6DPmejz70vGES+a0iCvvEh1r2nRBG+f05KPmNR5L0uZPw9rZLkPXiGhz7e5Tc8v6TYvYSWsb5SDI++36lovp+4Jz76lya+cuMdPujsdz27oos++JWavZanOr5pKsW+xB6GvmM7jb7Gw2g+7ViPvmCcWD7yL3Q+HNCbu9y1rj1+vzA+Ng15PYP6sD0rLcY8xL0LviMBnb2JIIg9fci5PQm3Yz3MCMY920h9Pdl8ybw2RZg9EyPuPMkW+70gkWq9/2sHPqMdgj2066g9eMCuPQnCnD09L8W9u0FHPSY7Vb0nKjQ8dlAKvajlPD5VFoc9xCApvjgx3D3I2S0+B3UjPmYNHD6QXmY+zgd3vrQWtz3ubKK9MmpHvcY1I74ezhc+1RZTPtJB9T35T+g9A5ssPokRgL4XOuM9Vtwuvh3Aqb1qSVi+OYwVPpXZIT4IvzY+Q9l6PpW5Sz5fVki+ZhgBPjJ96r10S8W9tkaoPA4Zg76GUVe+Da62vo86nb5xb0q94O1wPrWi2by69FW+l+msvAkBdrx5tnS+5QclvkUcsb6L8Xi+JpbHvXtfDj4fxr69mRBXviPiiT2/QDQ92TUNvr2kJL5BoBq+KDMXvmK4izsCvzg+TICevfk0Pr7n4AY79XWDPR1KzD3GKRA+mdH5O/YhF71i3fS97ScVvk6EBr6pUnE+Hih6PjEYA71BOPE9UWNaPQBcrTyNm4A9sLypvKuCDL7Kt0k8ggkBPue+yj3lLHU9q+fOPMJL6jtihJU91zJcPZRG8jzbyyS9IbjkvP+sjD0rzAI9DBdTvF3p9z1wII49dgtzOwBUiTymy8y9mJFtvPkMRz2ltqo9JtGivY8alj3LF+s7em7DPWokmDyAGYm9Zj+jvftkqb39h409qPRVPhtbn7tBeaE9fBZRPdRVzjs5ul89i6tnPCUO4b0Km9a8u78fO+b+Bj5+swa8NkHJui9q/L13MeG9WUB9ve3rg713K5g8lVivPUiQaLz4Lc+9mMDYvBuAhLwdubq940oKvJOcGr3j6pe9RPyqutiqAT3i+Iq90TY7vdqQlz1+9DU9wruAOt1szDtgwhg9ZNJyvICxJD3ZJdo7GzIoPIm9rb0+WDG9mDGVvLLqZr6VwS6+JN1PvoAXqrwl1Lc7x4O5PbX6bL0V0Lm9ZNi6PcW0mjxhgo69TXKmvZ8YkL3SzKi4LuKuPTLP9D2TnpG8sutdvaRIzDy/a329hzvSvWkhrL2vDLC9ys8rPehHprxtlYE9oqYbu22gGL4l7Ou8mT1PPCdlfz0h6jw9MSSiOy1TdDy0fnO9/OGNvW4DqT0t2zk9/dsgvQT2tLttwA0+4UlPPs7VkT3unM09TPe5PQElQr6ICk48IrsVPYjPwr2XeH692cQqPuh6aD5x/VI9eGWzPQZKmbyX/e29QJsiPeBU4jxcGW29u/YDvUPnnD3X6OI9VMJwPTWUuj05ApK92E8YvrGRiTxxdyM9CyNpvX9umj0VPho+ss4hPTcFyT1L2q88657PPeuM6707Ezi94E7+PDBeVb3B1te9JGTNPUY5xD07+689NcQ5PS8ZNr3B4Ai8zYqLPMRPKb3d0iO9fFoEPQnDir28Ev29b9IMvQ+Dg7yJ9ty9GEhTPCMTj70qsLe9/GCgPJxWJj7cdug6RaCfvUufwrzHnCG+JbUGPSLDtj0oxuO9UDZEvXa2lD10YM+882srvbrD373yn8i9543JvKfKDb4HoAQ+HNX4vQrpsr32l4k8e071PfvsL73pQ/A8EFw1vg14F77sLGa+HX4IveSxNr79YkQ+/48vPlyBrT4E72u9AZbFPZX2Ib7jCHK+g8s+vStcFr0GcYe+8k5GPiLraz43BBk+HMRovdPNBzrUWyy+5aTyvbbUJL4fMJo84T15vmqyLz6pzUI+fM3kPVoKEjy80lo9Ca3ivRWSob0QfTu+CLysvVodJL6B3cM9VSipPbI6dD6dhG69O2zdPX3xLb745lO+SMp5vTMcN71kNl++5HMEPiHjPD6WEJk8nFmEvRktBT0M0z++9zMWvpp1gr5WTOI8EOtAvhYrrj1qXRs+UgS1vFEQory902G6Fp5DvfUZk71AcxC+45yWu8zLxr1lvBA9qWu3PKmtOz56ip+90c6zva0fCL6TIxK+RHxTPbyFCj0/8ee9FZLpvNy6aT0ktam8axQXvoY8Db6SsB++0+n4vR/w/L0mldQ9BeIGvqkAdL2u1OE84h+jvdK4NT7DUQ4+Py23PWPo8T3v3tY7i7ODvSCSBT3kTTk8ivE1vTADLT0ugYQ9FoUKPoNy1Dyji4I8LAAjPvGQJb1tWTg9C/gFPRV6ijxVwxa+CsYKPdq8vj2ijq285db5PJ/mh71w0ow6RJwSPTdrSb19akC9d80RvbBS7D0x+l498KMEPiJfSz2kXXe71TbkvRHEIb1eg548zRL4vANDpz2IN9s9vE0+PmtTxz1jYTu9Jt0VPokXLr4Sioq9Pa2sPfF/C7y9z+G9BACzPcWwPz5tBnE9I9yPPeAnIj3CNi2+hrHDvKiWjz2sF1c8DyY8PU/+Qb4QK1K+FiOZvbjSXb1JjbW9++ARPo4t0bw2/Tu9C9I2vObL4j0BdSi+UcElvdQ8Kr4dQCm+kqaavZ9WzzzglNy9knMPPJM9yz3kOia9Dc+KvfIdPj0uV+A7D3yKvFCkA732wcm9aLW0vKv/Oj21fdA9iFi/PCClU74y6W++oWcxvl2Xub3gvHS9329sPtwrXTx3ELy9KQ74O+BxVbyJYD6+1+RYvogZN74g1te9gdqPvB+KCj56jmA9K757vcFmWDwxPGi8mEJpvfnD4L3rzXk8dVLSvKpYXT3/F789TrIHPvbYAb4VqeW9GYPwPdisfD4xuYw+FwnRPflAmz1Koki9ca9NvpOxybtjA5E+Yj6RPMLlPb1ADpE+bNSqPr49RD5RMRM+Jb2evarUn74rdDc9t0lyPunD0jyOXns9HzRHPtV7aj7QaAQ+WypUPdTvATugzD2+GCnuvCYjCj7bGKE8mFcevSvyGL7QQ6W+sUdhvli2tL0vPje78R2TPuhjGrwfHx2+YGt+vXbG6L2i5A++SsCIvpnYV77t2jG+eGJzvTHATT4ZjE29msWmvb+wGz2M0fo8TSkIvvIaSr773Ja9Hhv5vcR3GrsZZjc+aK+avSP54b1+dae71/eEvL0P0D0tAdI9D8jSPXCx0z2EeYQ77XTevey/xL3u8v+7RTQHPZLWf71SBQk+H0LNPY867T1z9P49Ww49vU5fPb6Wnly9+nEoPQeURD2HvD69pc+TPRwOoT2FeOs9LhBmPYZSiT13qcq9glgmPdqMq7zz62+968KKPe+h4Tyo+o08Q4OBPbb/rbycW6G9//Sau5b3BL4wsdM8WvW1PQXnnj2f6z69UgkJvIlB+bxKaQ6+wtG/vRAiFD39kRy+nrXRPT3pBj7DYTK9uwywPLa2iLzSFcI8RQT8vPhhnLyKK6A9+Gk0PePIpjkp3Es8sGSRPf79ND1jkQI9SsVHPHZuw73mKbm9RjLfvI5NzjrrCRk+EPGBPZqhOD7+1wg9cSXJPIxEO72dqi++i4pCvvEKQb1amzy9ir6NPgLRGT5dpLA9pfyCvQqj7bu7f+S98dXovRvZJb6o/Y89u4JtvQTRTz5R5J09W+KAvvzYAr4NvSu+moR7PvCHEz5AgEI+JqH/PWFohj7Y3gK/SFhDvt2xZb601hG+z39XvUgZkT5E+1w+vAs/PoSVXr2r8og+8LnTvqBJ971CF4S+pIOwO14PIj5XFY4+MXwpPml0AD6j5y6+2smrPYpaXr6qDhu9i90jvnFsq778Yia+JlxmPSxjlDy8JX0+bP/ZPZxCmj0jS/u+O8nmvZG1Jr5jlKO+72w9vl8leju4lTA8vT5FPqPtOT5D7wc9bnvnvo4rh7xLVVm+aSY0vhhjWT1KCGI91xUmPcptGT2gE7e7KNtqvYjUoL6RgDI92s0jPnsB4b5u2wm/Du77vrZR4r7tZte9egLxPiSrhL3gph2+cdEMvSpGFL2hk4G+SoF6vsXeUb58gTu+Egm2PcO1jz7FVe89BNurvSB9G743ZZ++zyJnPBwoIL06q3093qXmPQXoCT7lwYw9HXrKPklTPL4qYZa+Z3+/PoBeZr3ipck6VAeIvmRYsb4ua1e+XzqvPa1ctb6D3NY+CPquPhj0pT5lXZ49eWxkPktHUb6SSn2+yF91vpROKr4KPIe+Sw0UP+pnrj6buB4+wj+FvIlRxz02iAu+M+uIvhuvW75YqoS9eyWMvWkinj6E0/w9VxHJOkn5ST5rxUI+tHzXPn4PVD4Tlh0+POZbvtmACb2dWMK9RqAQvEjc3jy5eec9iUPnPaGRvT4ZwoA+TsI1PvU6B76wUJs8Gh8nvpqvy73XI169Y0eTPYwhZD02/zU+Z13DPAYxBzp7t7m9+UuqvMHPwL3G3fU8ztWCPgxelLtLRxa+7eL9vV8/Db4ifxm+3cQJPudg8r1A54c9iaSgPaOypT67xkm9Dgw2vv7HYb7UWpy+YB94vvkbij6fT/y9r4SYPU6l7j2T2qw++GikvPAFE77qM4O+n6Srvg8Fp74fLTY+hIaLvpbidj6x+ow+0QUwPHNKHD5dL6E7mQL2PPv5Lj5p9yg92AYhPCdtPj3EMi09DG+uvVT9Aj7svA89UmwkvhC4qL3EvV29y2jxPP1uAD5Aem49MO40vKvhy7yEUhU+zirivHYB9L1XS0a+OtGWvYDu2r1fdc891LsFvXxNUD6zNPs9rJENvo08OT1SlE4+OOYgPtt9Pj4dG1U+g6dNvozqjj1yZ4O9BAXgvHu1O75/eh89+6cmPs2Cvj0j4VI+V05gPk9Gc75Z5vk9AoMcvko1o73/V2u+kx4BPk/eXD6LhTg+XGaKPgufUz7OpUG+JO8JPoM1IL3+C5S9mIZfvSRqUr4+vW++7tRpvmZQNr5dbF49JyaJPiKHuj3aM3G+smvSvPwQVL2zmE2+HwPqvYQ/gr55bHe+fYufvRpwEz4M6KS9jY1RvnRtAz3rsu68PSvgvTdNtL3gj8a9EmffvcxYMz09/vs9kgNBvZcTYb706DQ8tJuRPWHClT3y8SY9slnCvfYopb1HG7+9OljsvCreLL4MMnY+TxRuPjmhAj1VYIM9lXyEPZ5ijzm5DQo9nGIHvXaCAr3tLeq94GbFPRtI9T1bj549Rpg3PWuErTwBS7g82GW9vD8Ygr09Qj490iCsvXTSFT7fKZM9XqZHvdUmZj5Qb/09yG9NPmN3GT5Mfjg8oi8bvmMVWj4MhA8+r08avmznWr20bmo+L/oYPhWDMT6pJEo+IGTbPH7G9b2rdiQ+LeI8PiTM2b3UdAk9TGoOPn8+TD23Zwg+Sq1iPW/3Ab3tEdy9dmbQPdSwHj7WsNO8mNlBvAUjKr0PmXy9R7p2vf1PBb0qQyc8DqKMPLDJi7wCerS9p691PVhHlD3vXOa8XLdsPSYie70YzQO+9I7Iu8lnjLzvQPm93xqZPJcO/D21Mpa72h2xvFNygjsi6sc7rJFove3Mfj3R6Js8FylivQUkdb0cMiq9ituTvd6fD74QB6q905MNvdsUtrtcezu7rLxFPZsGXrzLdBW9BJJQPKAdQ70zBBC9Y5plvbjEI7zCiuG7dpV1PROjdztUpNI8R3LovRwhFrwlByC8EgjAva1nuL0vgoi9/0TzvEtQILswvZU9OukfPZDkGb73gBW94erhvKibob2n6rS8bmLXva+VCjzwGpm9O5EfPbpFSrypTfw8uUHZvGSORD3nIK09fbRjPRdK7Dzv2sm8pcnAPSX0/Lw00Wo9KNyePS51vb1VgZW9yNvXPTZH5j3kQoe8c1l3PYy/XT3CId+86RalPXlNALxz85a9e5iVvfzc2z1LWx4+iEzYPBWu2jwkJ6g7Ghcfvr5pFz2cj109cT4AvSptIT08Qz4+9hD8PbaN9D0QWGE7vFDpPfoL+b04MpK8qEQKPdLoV70zQNi9jRMAPuP6Az6Lk909WKO8PesbNT2HHMO9+EqaPe6YmLpQgxu93t4cvcDnHD0aB4a9+LmZvJbtx7yYB8e9qVy7PNA+W73GZJ29ZxLgu9zd1T16RGQ78sXNvTt8b72JERy+INOkPUpgrzzd3zC9VW3pvXxVEDyJmmu9oyfcPKCipL2/+jO9/sJtvd1W4L3uu/Q9jWYivUnY4b3wzAQ9wOGVPUVni70q7MI8v67ZvfaCtb1piDK+nmWVvXMePr6eCho+sH9iPhtopD695bW8vfJYPauBJr4B8mC++d6BvcWV+zuOBGO+719APrHSjT6wSio98c+PPLg8gz2I6bS9kR7RvSt4OL7Lq/m8mCddvu1hGj3hA1Q+IATzPQDye722c4Q9Oha/vYl13L2rax6+XfSgvQYhH74XXZM9IXciPuZphD49+O69FgfIPOcvLb4XPDm+EUCDu/aKxDvKR1++pvSQPXSHVz6ucdQ9c/PDvV3/172mpTO+7XBYvg9fOL6FTOc9BL9BvhZKKz2ncjk+epSvOyfywLqV8A29P+6Xvc+3Nr2pP3u9XKqUOsprDb7dZ0K9ipjKPTHaVj5q3We9RaChvbkYNL7gTDG+sbAgvXVP+D3tFuG9c9YuvVR3+j1/Y/48/0Qevo98Qb5H12a+uJkuvq/LR76hJns+ZrY9va1Qm72tmNE8nbqevRgROz6zGho+equwPeiflT3d2Qi83KLuvRE+CD1qYBy9H14evaR/GD2EqvU9PSbYPa9BP7wP9As7Q2/ZPeVmIL3tlUa9E073vBrD0bybxru91+AhPdORED3ddxI9euDNPJeAW73YzFy8Yy2uu2FDqbyU9GG9ultgvViCwj2C1WI9hpcBPjPh4D1Yy4o9DKjQvVHVTDvsHdI8Nd/QPNm09j0BiXg9J2YXPk2ERj1GFtQ8gk1rPY33Kr5z2rQ8sKXkPdJpBj3/5lO9mIP0Pfbl0z0ANRU9ApOePdTj4Lx2j8W9tkdwPTAdAT6DRyU96YWsPJwVbr4qJkC+xEQhvo8wYb2j5de9AXATPlWAOL1rnQy93TaaPdN9Sz6T3DW+70qjvU8x+L01PcG97l9BvYfT1D1x/RK+ZB4jPXIkBz4g5t05tlNQvbsDNr3g2ca7FUcXO2wmsL0Fl6879K4OvgsreD19oEs9jHu1vPFzir2Y38y9hzoAvmaH67387Yi8PPAMPmIWQj1RQrG8xQoXvU8m+7166rK9CkEQvlHP+73ab329Q96PvA1wUj3xdNk9lW24vMfUdr0OS+W7eQp7vZiUmb3d50g9iJX0PMv+V7wqdF893I/gPZanDL3PpHy93ekfPaMakD4ampQ+zm7vPQErmj3L2dM8iCt/vqpztz2yPY8+O+6CvDKl2b1moJk+523UPlV4Vj71WxA+K9K1vP63ir5tVyw+wtyEPkM9or2PHhw9rlQWPifhVj65k8s9Wh/RPI9ZGb2NPIm+xVKJvTSaQD6K9I89C/S4vIMChL49v4m+ZKppvu/0Hr5UnI08dASJPuUoUL0Nejm+LFSEvDNXer08IEu+FgsxvmGCNb4Zev69HU4MvuMwLj7jxES9ytFYvQrZojzgpYk9ceYOvmmMlL6x9/69SZzWvbL9wr3k51w+PiI4vRA2Dr4aipW6gYggvSI29T25yFU9NxwzPiOR2z1fz7s9H2nivSJPb70uYQ48Zj+1PY8QhL0BaEQ+a9o/Pvj3Sj51Niw+3g2QuwtTV759eYW8ZFHJPHVbGT001dy95OgyPhOJqT3ceio+hDhMPmITDD7Wfe29Gq2UPT78gL2nf+K89Sk5PePRFT6Xfjk+ZKGOu0Umob27qWK8mc3cvIg6zL1+0Ak+aj80PrLeaz1i7om6l705PTP7jL0VD7m9DZMCvgAutz2p/Zu9ZmMKPtS1Gj6ltyY8zLyXvX7C1L0/mBS9yF3qvMZ0BbyWcfA9JghivWiKKL1tvx89l2xNPVHxLj360Ao98GMAvacq8b2UiIm9li8dPLmBnb0FYV09+mykPeSIFT4KR1q8+LIxPROYhL51gIG++YAivt2ptzxWlSG+U8VsPoseXT4+z+Y9nQb8vdc9i72+T0q+50Q9vpt0Tr7hIxI+fS4PvgWXEz6GOIc95BlFvj33+zxLoIM9jCyyPtftcD5D/4g+sHMivk4TIz6UKZC+PwblvXxfOL6HCaU8cLcnPirGnD7Upks+qXplPiN7OL4D9lk+1R2IvgFzB74jBey9XfDmPSEkHz5fPIY+pJQwPmxbAz66XWi+rUYaPao7Ir2bE629Xa6WviBqlr4Da4u+bEUUPls5vz10U6M+Z+FoPisFbD09Yi2/GtJGvinQhL4WN8C+e/rCvvfwij2z+ZM8zliOPvfviD7L9qA9yOQzv97S570UMoy+OoHXvZqz97zimBE+BsDOPZk8Nj7zCPE87rHuPYBTDr8knQe+DLi5PPowp76YYoi+wgDHvqchZL5B7VA9fsSmPj3YSb1i/WO+wE0MvgCdHr66x9A8hZnuPX3ZWj0DLPY9Z1KOPtwMk71nyNE9zx2avad3vb7QCPG+xn8RPs6XJj6ceF4+tJ+PPqz6cz6TdhO+ADUBP9kvo76MnAi/AuOyPUdCR71t4O28pKX6vSEKk7w9r187JwfSPWxWg77n0bc9B2m0Pb7W2T0iJoQ+ZieqPoju5T3naV8+7l9YPRlxk74idxa+vgCRPiw1TDp8VdG98Bf7Pd7VxD2e44O7jkadPasSnjxmv7699qqIPX7oxz17Szu+LMCzvZEnqz7OV7E+OyTGPsZZtT6z7Jk+LZGMvkn4jTwoXAa9vGbfvTBxQ716Ho0+3ux+PmTf6D7e7cI+0Sa4PgfKUb6RF4K844o8vvO+XL6CNTa+r+ByPp7cCT6kR7U+SY+ZPtBnVj5cUx++/iA/Pl1elb69U4i+R38fPiERrj0lzxc8twS7PEwNYr02cZm8HxSlPZcxE77DJ6Y9OovyPQS8hj4P+4U8xyyTvjdgQ752FmO+uHTxvRznfj6HPk++LnmcPIxX9T1OaEw+tooXO2++DL4CcIW+f6J/vrJSbL4FohA+3JJevqOWID5pviI+MxZnvblgqz0I6Aa+OUgOPiB0Fz7MRqY91C0PPUiEoj2ZteS83jiBvX1DAzy0Mo895CeYvkpNsbsKV7U81sOHPTU7cT7W6w8+gTcavuggFL6ue109j0sLPtS97L1lWFW8pEoTPdlRn7yEKr89x3rEPemGRD344um9FzodvjDdz72lW6E9y7juvBvMEj5UpFU+ysMKvtWRxT26TcO8oJdCvbdv+r2pBQW+V28APsrcDDtRb1M9oUbXPTT4+r3vfqu8YEGNvSM+6Dz+Np69gccbvYc6Cz6OW4c9MevmPcrttj3GudO9egH9uzx9vDxJUxM7OB4rvj6xS76ArTu+aMApvk5xm73PCBc9GpMrPuvzFz7mkDq+yc7UvezrJb4Giie+Ly/NvQCxWL6QQrq9aPLcvAETSD13DvY8y31Yvuge3jtIV4i9Vdf0vdMI6r0qLn69StonvY6wr7wfWMs9zqMEvOdfHb6Mz7a8g8gwPucnCb1gMZI9MVd6vTgQi70O8Me9J6upvF13Kb6g7Lc+5tYWPhs2rj0HvQA8VHGtPLgl6L1/ERi9g5YZvrzaDL1ROHe98JJuPlySMD5ALRc+F3UQvcrURjzvyoC9sNCTvTRD9r1nW1Y8qHTXvXbKYj7G5ig+Ibbgu0RGWj68lf09MT9CPoRvZz4PHM47OYg/vmIRnj1CMwQ+i8vvvR1/+7wqiFo+ZDJCPrhjJT6/rAU+D5RhvC/pO75ZFE89UfszPmN9uLunePg8qu4FPpcPKj7VWC4+6c0rPgUibDzHtze+NhYYPcDwQj7D34q9kdG/PAVsQbrxDH69bOW1vITZR72wxuG8MWNvPYq+gb1z9Ry+R10mOgS0Vjx9WFC9yU1TPesEnTtc45+90nnau9Ds6TnClsW9F63RvAi9PD3CilO9fIOSPAAZQT0LJf88exNgPMz5JT2BpxK8U4yOvUtqlr2Drak7OniOvRPwJr0G17u9urOGvTRgxzx3s1a9dmGePSuzo71YGiS9TlkzPFw0pbzEkq68pTvbvEpA67watCK9avxnPYjDyj21bCo97gpzvIEOgL1G09+6czfOvQQzFL1/dc29x56IvRINPL1KjQI+91PrPEvOIL7cgcc8m/6SPGP6LL3vYwK9/rnAvatr67o2NMO9ssUUPRU4fb17B7+672/+PJVPBD193Aa8h1lDPTA4hL1FAlO7iMx0PTa7a71rley8FZjuPK1A/joAZJS9odezPEvXMj2fBha9FxMjPWsH5DxURiG99G2oPN5rBzyYJ9G8dswtvfRx2TxmMtU97O1YPU23Tj0OVUC5ah8FvgSXGT2socQ8F4eivXD8nTwj16A9qaQYPZkIyD28Uwi9k+kJPgar8r2CHYM9dCumvGQajL04HRC+azPGPbqxaT1romY9tii8PY78ezy9YAS9BE3FPXCOhr2qmwC9N05YvCIrWDxUOQU9ma/ku8N3WLxMB0C9QQ/SvJyIMD3LLfS95X4fvR5cyT3HPt+8NsWJvLqgFz1q9Gu9N2AxPX1Z37rYC4O9WbDqvNZ+rz25YKe9feY7umLKo72IuiS71JmmO/y1l73sJlE9+QBPvVTJAb4yyiM9zrWSPR+NRL17P8M9ucKyvakFgb2FTM69tidWvYdqNL4LV6k99jQLPqarlT71BIo7FiK9PRxMg73D4De+akDcvHdKmb0W9Uu+0QJKPpeqYj4jToY96M5MPKhgsT2cvcK9eXrnvdd/Cb7HZk69jYMVvrOPMT3mhC0+SPS5PTmRQD3PPyc+zMPpvC932ruXTjW+B7lVvYNKHb44rhY+8XAxPmIzhT6bgui9dRYwPfWBJr6Eow++eVL/PDoegT1TnvW9e5D+urEeNj4xNpG8EPYivjGD9L3l3gS+YJcEvm+1P77sWhQ+Cyjrvblqj71M0Jc9k9gEPVV4ZbzWuAg85rl4vSyeFj3jo7S9/oXzvHprvb3GH7W8g+yuPdNVFD4a5Oe9SlSRvTSTvr29UPi9WcB2uya6Bj3pGOu9DECzvYmvmT3/toS8SrYqvuz7UL6htvK9xMa5vTe0Ab52qlU+R+9cvSgC972Q6KU8SAnjvQMeDj5Jvio+JmYJPvHX7D2o+nw8wWXPvcoK7rpAtWs8sT3SvGn6TbldogE9Vv2vPSIFzjwINLw8ov4OPhIz5r2Xatm7mXExvcPtFL2LvMa9YcwpvMB+hrxlA2U9dpO4PIiKJj1eNe07t943PRfljb1T9Dm99OicvaP90z2ZOvQ966qZPcjoBj4jUUs8lWwBvmz92ruTVDM8V15lvRJrpT1cN9s9Jo4CPkHWdT1OTBc9t73GPeYIVb6OdJM81yPgPdVL9TzB3/y9N0AQPo4ZJz6uJwU+IgLwPerWSD3P4hy+pl/LPCFCID1qv1O9U9uhPFNWdb4v1zK+/VjQvfN8273cCBK+PLk6PtHJHr68aHq7HAbBPcYbDT45Kzq+OrMhvRN9L76aMxm+1TGrvbf9XD23uUy+BLD0Pc6eVT6JZgW8ANYDvmVYKr0hTYm91aanvRetzL0QouW5mQD8vdQCiD2mcYM9blcAvXyG87x8ZHe93JFMvf7Muzz0UXO9uWJYPCYMBz7xj8E833FYvcrp371eda89V7ETvQYFRbwQpk89kEXIvF8yLjwQTb89+PtpPNFYuL3HSiO9/Yy/PMvrYr15pjk9JUo1PSHodD2IlR+9ZkofPSkwjT0bsru9I5aQvX4XRD7+cnw+d8cAPiHfFT1gfQ87QddSvrtryD3wNGY+X4IAvhW04r2xZ3A+tJIDPiL2DT78tbk9/5MhvfCjCb5xY0w+i0ipPb++973mZ489XHPRPSQuOj6u5ac9yCc/vNTgyDv6fzK+z4buPIx00D0Z1wE9Ym1dPeCOTr5DAHS+DbtLvn0+G75o3om9RpZkPplOtb02K4+9EjGYPfzbbr0LEDm+5KcBvrbryr1e/gG+UE4Wvtp2qj0ecQO+JBSLvbZ/9z1asUs9EpBJvixTQ770sw6++IcxvmrIjL2vtnI+qVb7vU3ENL1cFc89XNxzvdeZNT6hpws+SGFrPgcBOz44fAk+qt42vm5DsruioHI9LmfkPGD1Rr4Fr1k+/BI2Pu1Zpj7RNok+dTnmPcXFk750n+g9F/GRPeQs171L+Py9y54iPhxQuj3tIXM+cPF9Ps91GT4keLW9U1MgPhxNurv5sBG++md3PUkZTD7+cq8+1tTUPRU26LrLOoy9Ro9Tvm/5A77Q43k+SV40PmITpT3vEHo98RmIPg6YPjzGRc+8ODnlvUwILL6vITm+MRJKPpBuKT6o66A9BBlWPaqyB7tU1TU8PBNIvY6Igr3PNvC8cIDcvBpwfj0MBz47s71KPrmhMb29/jk9jck2vp+sdr4US/W9LbHHPdbrML5Ki+09MB0SPsqEjz51hee9FmchvbMyvr5VacK+6QZevkhUjz5/elW+n3NCPiODRD4kqmw+yE0ZvrfFHb4Er4q+n2mEvqpchb6zJJQ+2+QCvpPLJT4n+P49mODmvb8a5D3MuAY+/CAOPvGbxj37hw0+7cURvk5ZBz7rvBu+fvW2vRPnwr2RjjY+LYq8PX1FXD7qXIM9hyoGPvWz9r16exo+XEKyvXR8QL6ZuBK+xZIFPnZcGD62SV0+jqgrPhMgBT7iE/C95QFFPmS/hb0kWYS+MecbvvUfFr6rO6+9b29JPhdVmD1JORA+PurlPACvcr0yDsa+auFqvc5ml700M2K+oYo9vtFSvT32Zwo9z31JPsRiLD7tCPm8TTqivqDCrL2DESq+eVlFvKO/CjxGqCQ+yuw5PdbNjD0uxHa9+XrJvOYWb75Iwas42vB0PKUT7b77HNO+6csVvlrvKr7xp9s8qITXPqogdL6JQ+2+tJeJPdCsHj7zMxC/n4kXvwfwhr5f7pe+N0F0vdVGFz/hRZW+WsEFv2pejD12ZVs9/0NkvvciwL7vBj++Mih8vlQ71L1Ru60+edvWvYfMtL5LYQk+Hs0fvaxsoD38zyc99AoUPldlHz7LYTE+Rl/rvaPRmr2n/J+9ymwivSCl87x+8GY9NqH4vQGG3D2xdmE+wFRHPsz2nzxyPba8m6xevjHmjr19/sS8ksT3PfMxNL0UQ/E93jA+PrzoSj4+FIE8al/MPfi6j75EYFa+DwM/Pc0GgT5aZo0+huwrPjh1mT2AFEo9K/J2vhQwNr4IiXw+OvofPklbfj7iAB8+lmKhvCUeDD5YM1E9X9ZKPWRUd716FTC+zncRPr/Q9T1uVxE+V0EZPmqKz71/qGA9FVNSPBcTMb1NFOq76m5YvZxzuT0yjKW8k/KUPgGHNT1FbZi8mMO1vAx4D777I12+nITnOXuXpL6nDnc+8yuBPrXR1z7H0rG9e9OtvqjmUL78fbG+j7+FvkwQlj53X6a+ltwBPkkkhD7QwrU+lrJVvHMyk75TPH6+Q2uRvgkQqL4clkg+kragvnOVoD6QZIo+zydvPPkNhTy3owO+n3WaPT5VyjyYYiU9ZZpQPSlSYrrAZSS+d0SCvbo6kbopHpQ86KGBvm38kT3TGIk9IgbFPe73XT6Xxuo97BidvimMU74GS469XqxBPttJBL5K0h0+T9PbPQ7bXj3BUzg9G9UNPvo9B76ouoW+4HEWvhqMjL6uDwe9lxT0vWGrfjwHyts9ZCazvPayrTvxiAu+pT3pvOIgzL3+f16+1CkIPadw5L0kdXS9H79vvHVAyL2DrLa9Bn8zvi7b+z36zxU93X8vvi6uYz1uVou9bIKqu11jpr3tHAe9jKzOvc/gRLwgFr09DmeqvCctvb64Xpe+lZJIvnOjIL7ekI68fbvGPiDXIj0h4Uu+0eBavNPMrL2ej5C+q0Q/vt/Xkb4LBhm+UOlbvV5gTD7OyQa+JrZAvkcJ+z3UecY8ArZ0vk6dJ77mMFm+JVIOvrta972QkSM+gK4Tvvwxer1/msA9B3YZPoQIpjqpoa49jBs3PZy0Cr364Ca+XnqhvesV3r0uKL4+CutKPsXsxD15PHC7oc8HPjVhC7xDthI9pQ3qvRs8371ZExq90FmTPgIQID6Wy1c+JusLO6cWuj2Fc628MukVvdkFGL4M9/G9sr3lvcjPgj7rKQM+grqCPeUyJ72v0s+9c4tSvUksOL2l0jO9MDa6PdnnJT19fzs9abYPvcReHzsZdAe+xIjfvbH08L2NNNC8yLZGvb5AGj7xEq08abPyPHq9er086OE9JLQiPOA/nz3nwYk8qQWdvEdiTL2gzwS+Y6iSvIcWKT6I9OC8LBXmvabbijxdq1I8PhoAPjtrdT1LjQg97gk3vWZ9mj29egS+S5hsvVa+573KhNw9nA5sPWsgoj2+KME9sRITPQ4HWL1QqgA9AlGnvABtH73X56O99319PcKwIruiXoM91s7wPOmYuTwH2g+9pkMYOl8db73584e9ad3+O4oHZbwFPZw9gTg8PaL8RDw2HG48mF1fvZc3/L2j2e08drMWPYJmV7wkq/M7r+0FPeEP6bwNu+O86lEsPUjjib06oQk8ozEePe63vTx2Jc+8ePaCvew+Vr2I5oi8D36Pvc/Rg7yOcw49t3KHvXF6TL2GsNk8ubu2PFNeYb3EL0O9R16Hvdr+N7wkBWm9gUQbvc2ZhL3xCYQ98S9RPNtcnT3/+4e8oCKjPfjNCL2/9fy8tn2BPCejZrzAuyQ9JmypPQ/WIzwACeK7P09JPWpFBT5GBOU8zDMwvaVfPLura3m9sUbzPFjz+z08vau9fm58vWsMKTsagv06dKsOvT/QAT2J8gi9zhcKO9d+Sz0bhNe8TsmuvQRqzTuuxoi8tD1TPPsWKT2we2q93/TIPZOMDz3k0Cw96xHhPHwkQL2ZrgS+K9ZrvZyQvTrUU/m7mn50PT+v/zy/VNw8LknJPfzO1bx5W8O9LPXqvZ8lLD0KMRA9ofQlPaiOlj1muJW92XuCvRbsij189ni9rxdfvXR8vz0KWyg8pKjku0iOq7yQnI29v2vRPRPX5jz6veW80iuIvftVTT30bui9lBNGPDS55TwjXiA8cjzjPDEnm715Dwm8AIMbvW04272dGBY7q+ubPcpxKbyg+6U9yEWyunVwkLy8U8a9K1+WvXFWR77W2yo+du1IPoe+dT4H/zC8tcVyPircP72OKy++RyfTvLzrHb6j/om+Q6xIPpRHfD5Zu4c8EERXPeS7NT7EC4I70gK2vMF3Or4WZiS+bA4xvjLMAz7CDhI+oKnGvES8Az3sBrY98rhVOz5pILwOBuS93hHgve6aDr7e0nw8KhEZPs9Q/z2iwDu9JzuWu3GRF723A3i9BaWpPWM8nT2sbhG9Cgi9vMr9Qz1f4a+8SIQUvs4CCL6A/ra9HhSsvSIfpb0fdAY+mq4fvPH4JL6cC4M8OA0OPdKfZbwA8o28BKdavRdkPb2ZYVK7XNukPKB/u71/xJ27oHQUPA1sBT7xhOC9OkzNvXtDC74LXuu9b86cPZd7BT4wCaS9bwr9vdtLTj1kM7q9ioN2vnSQCr4sxuy9P7cPvp7x17wtmkg+AMAAN009Kr4EsP08yAfTvVa1OD01ies8E9jbua8Y/D2oj/27hlGNvfP1Fz2D3729u4CtvBDsLzxpXIq8I1SCvFl5UL18vKS79Rv8PQL5nzwXfrE9fMW5vekJIr0fSXe9YVB7vUrkg737A1A8tYEnPTAFETxDxgk+zguXPXbZCb6Gm8C9sPSIvZvRgz39UDg9/kzfPYPosz3DLlU9IF18vfqVhj3eCCU7bJopvb5jsz01pDo9sXEsPkPXrT1dQD4735XgPYqXMr6aND09QLHjPQoadjzh9ai8lg2jPbrNNT4rfqM9iaS2Pe5TgDzmChm+DVWIPfz3tz3jKPO8AJJBPXOuHb7wkHK9brmsvZkkiL090RG++qO8PcJBFL7dseY8eoiWPaPtBj4Pu6u9mB2FPL3MJ76wuVS+mgHzvezMN70G3Ba+vsUoPvK3Oj4wM8C6957LvYY7JD2LZVS9RlfyvQHnw7052am9hWwivl8nPD52TZg9rkm5vXbimrz7Lpq9eaLbvG92tb01uZe9L/W9Pd7bFT0itus7sISAu/FaIb3WRHI8ewNmvVmqybzHla085X0cvf+thj1BCec9qtWdvUH+gL1Mp4O98ahKPRIj0LuNyB89Uh9gPfc/Jj1GqAU9asDpPeOaMr3Cea+9blBSvbi8gz6dp4o+QuxKPsQoBT4CkYo9/VJZvq06iz5C6Q8+1xJLvv1mVL7oRoQ+upIzPlt6YD5Cwjs+xdXGPYnPAL758L8+JlfnPJbYeL7Hcq29Ln+CPpUqHD5p9Q0+h5rsPV22IT0sQVS+uA5OPhK2tj0b6Rm+iDTZPVlWT75ibQi+dnB5vmXQer6e/Jq9jWtwPsZ88b3bTFG9X4bSPZud170S90++CIQrvpqk5b3xHwW+vkbIvXHfHD6yQ4q8q6k/vZoVnT3PLps97485vg/eFL74ZTa9+xSvvYBvzjue3xE+ECGFvU7nML0656I9AmDsvT9Xur2FEMC9w27+PQKkTz2g8a49+6e8PQjkmjrM5yK+pDSovZbCi77JBVO9zajbvVVRHT7EaGM+Tx7QPdCqo7zo1Qs+wpMOvjG6or2UBuS9/MKoPE47Or5a2fo9jJH/PZXjJT704BI+KEYsPmGwpb5NJnG+Wwy1PRzasrxvzzQ+o882vcgv9jvEXYe9UfcMvtEEdr7nijQ+pa5FPifSqz0Ss7m9dZgfPgcfqL104Zq90bUJvli3C74pFJO+jURmPoBpkT6XAxM+sRzYvQa+Lj0oVRW+Ya0Zvkz3vr1tSum89w5BvmcF1D3MdDk+PGHnPdpwhryZOgU85/gqvvCkAL5HS8C95fiuPSXi0L1dOq89V2GgPfj9Zj7st36+VfkovkqNu74Wyrm+LzNOvvLwcT40GGa+SgDiPRGAcj7TNnQ+cNAKvhq5Hb6fqqa+gVyMvjXEXL56Qi4+l1oXvtErkz3FBTw994WUPb3pbr1Cl5i9Oq1Rvo4+m72DkVm84M0FPvbEuT3S/1889PVMPPO73T2c3Ri+NAYpvlAfS75EPDW+X+qmvZtlgD4/o2I9lcajPa6Hq72Oo+Y7SKTHvADJTL3U7D69TO4iPd8XPLzuYQw+sQ1fPnH1aD22FVi+FmzOvQL4jj4YRJM+q4x9PmxkSz5u9hc+0/SkvjjCvj04icY9QeP+vYP95r1Z4KU+tnVkPrRgqz4pUJY+WdKNPitbhL4YCoQ+EMGrPa+ESb6HQby9KP+BPh6wIz4xYaw+2suZPmVfFT6ALnS+NU+CPnDorj3Apmi+Ki0YPgCcqbwZcu49m1bPPVS2jrwl7uu8RcghviwvM70jHlI+dlbfPUXhwj3ojOo9UGhdPeJOFj5mlX08JaEGvGiphL2iYGy95yKgPfwBjLwJpy4+8TkmPsFOgz2sYkA+A3JcvaX+0L2zQT2+mCPCvTQ/yz18Qw8+6MqdPXHwoT1DGGQ+MeX9PXQuwD3U3PW7OgKYvltkz7xFp4o+eXjIPdhFQT4KLvc9A7IGPs1wgz5x4hk+VDEwPa6Kb7643Uo8TSxGPis7mzvR/Qk+ebE4PmX0XT64a48+qwaEPcp6bzwu3Jm+CtYFPY2uND5Y+6A9KZ8HPiqqYD7BhPU9Ee0hPqDLpT1GHfS9b4qrvfnZd71mGEk+dIe6PennMD5erRI+dhCBvVdMlj7IhnU9SgIau/3Ngr1RGfg8WtwAPqDFtDyrsqY9vzMfPvnln720Ni0+ZEO3uzVFI70dSxW8S3odPmCzzz2CHJa90C7XPfwh2b00wn6+Rm4ovXKIj71lvZW9GvxWPiJ6Nr7GsBC+UGcIPgz/BD7sEo29T6S3vq4f6j0W48C9t2ZIvDpunj40nnm97sJsvqT1u70XIqk9Tz+0PaDaOr40NLc9CAdqPYlYPbx3MOs9woiYPYRTZ73XzBG+eXNcvjKBsj1qt0g+4XQIPhxhRj5Jhmg+pDAQvlP5lD3J+Ha+r+UXvrlABb608Gk97szWPXhtNT4kCR49l6jVPWwotb1d+S09K/qIvjHaRb2TfRu+LSeOPReK8z2mGxA+KLouPiF4AD62LAC+GRAYPh3FUb4DekS+W86IvsahlDxOrk0+WPtNPcYXpD3hxTI+hir/vQpGAD5cX9+9MQcBvpdnUb6hap69GfljPlAVdDz1iq68IPjQPe1te745ojC9qR6uvfQqiT0bBba9LirTvSwZMj4zZKQ8aO7LPPu7Jj1LJxq+NiXGvSuo8Lz2n5s9Fu3XPQe/Rr5zq1++nNRqvpb3ZL4hTa+9T1J1PvyGGb2YdEe9upvkPVq+1LuZVEO+2zbzvdAj5b3Hlx++2Jrfvf8cKj5/JaK9Q1jzvM5iHT7kF+Q9hyh2vp/I5b30+j++8jfOvbZerb1giSk+fsAAvhT3lzzeEM49hfFlPbuHGT41/+Q8RnLJPaGWvTzSr3u93AiPvbBJsT1VFWM+TjyYvHRtmDy4nMk9ZnfOvJ/u0D1hxEY+EIUQPYRpu7wV1bE9fLwBPu3Gq71G9d09YZ23PMNdjD192eI9OdGKPfU7ar0sIty9SFNhPSIvbD73qk69VbylOkbROb5SFGu+hls/vs2gyb0Q/3C9bkwwPhrwwDyz2gC+XkmTvcWCnj1SJYi+/QJPvsRdOL7TxAa+ZU9TvUh/cz7uRbC9Xy6Yvf3hW71mXrc8TvOAvUE8XT2Cc2a9Uo3pO77pdb1nW4S8RONhu2GJtj14BUU9dZSCvVRXrz1qr+Q8jfFDPsxDxz2wO2E9Xt+QvVUjwzx1xw28dVlLvekdyL1xCqU9Vp0DPMETKj6O5HI9RQoKPspEBDuR7Ks9KIkovXcTMr0zkGq9MfvxPbuvGj15lS8+ziojPdKPRj3OOiC9fXuEPeONl722hty8/ItWPOMpJLw3N6s9D4IEPavQ8ryjFMK8k36lvZhOS77w83w9kmZDPjiLrz3zm3q8+YqQPXA4iTzA8YW9q0ZvvLmJiL3rqBq+qjz6PelXxT05QFK7flDZvAtkgT31H4C93WqBvQjAcb3MP7i9TK7OvVss5jzhzuo9K3sBPeZqw70gZX69M17JvXIMsb3Dwxy924WbPSGqxLxDU848wFoSvXp7fD1H7a27JJzuPQ9YCb2+LSC99t00vTWTSb2l8Fk9mRQ4Pk7ID71elMO9wnQavfBBsz2XR3I95tyXPVrPV719bai9uWqXPMO62z01msW881Q0vU6tEL78IOW9CjuuvC31Nby8duS8UzgVPj6p3T0q0SC+wZUAvlABsjytAwO++SLFvVBmlb1GwlC9ECqpPW/mQj4ld6k923daveFLuL3MF/u9HIP8vSfgKb5/pse9fczWO9IbYL1dhDA+LZ6RO2qSGr4kz4S9GGbuveIGej24WAc8ZJ14PYjmAD0b0Hq9043ovD6YIzzEk+u9ZvJ4vSHXZT18M2E9Z+QIPntLeD0qtDS92a+UPdaCtb2mNkQ9k/HGvAxTFzuOu869UYTIPRnZMT0KvI09r6NFPUp5UL12uLi9KQH1u6jax73L/wg9KgSBPboaELxVlO89pkicvZNae70hAQe+5mArvp/FQr5NSzQ+0lMsPuGwjT50KQA9DWhVPiN1jjysiGG+dpagvMfpRr7JWjy+wPRwPuyJgT4NE0M8WrotPqOAhz6Ed+o8bGabvJxA1L0Msoy+QtUbvinR6z2cd/Y9IRsvvN93tjz76Us9s6USvQhDCb3iL4C9d+7JvMcCA73nwpk89akDPr9U8j2pE8e920kXvdODR71pXwq+FIZUPUNOaT1NziG8OI29vSHAETwzIZm8E6UIvlKBvb2yWBC+czrUvUHx4L3+P/U9AyOBvJl8Ab4I9xE6LHdQvPDXLz0GD7E9xwatvOAnNL0LVce9rv6FvcSQzL2NoSo9NGz6PIMcCj4IjyC+oXUWPUVxsr1X/rS9m/xsPfcIdD27Sxq9kLeGvM5gmz24fHa9+NJSvnhz4L2h6Re+frHJvVrMn7376ys+cNv2u5Abir3vWvY8b5CqvGWbLT3qj6Y9+JzYO6qq0T0LuJy85KNwvQ+H1j0U8du8JPGDvVzYUz2M1IK9CJiFvU5WJ72juns8eaFYPRu/gz1rAF88+9qvvf1kdby21PS9w+D4vfmknr3/FUW9PRqGPGeKJ70uQ4I9ttIsPRa7Dr6omIe6DH1/vFTh5TxGkrk89vJGPUEHKj3qrBk8bPasvC4mvj2Dcta8MloUvmxorz1/4us8fgLRPE4tnj2tEM87u3LsPX/TTr0+27w9S12XPEUrm72wB8691++ru9kK8T3Dpwk+b/VcPd8YLz1vdfC9LJrzPQV/Hjtnrhq+2r+APf3Tjrr8v8A9UOy7vSIfLL2Khhq+eTt2vPFCt73bV6A9IyLkPUflCz4evF+9YbWKPRYH+r2zF669KqjUvZocDL4eXyi+l+FFPgWdDj7NHDu8Do9eO9APFz4IIKe8Ejj9OwOUTr1SUSu+LX8Mvca5bD5g2nY8xWR7PaN1xrzwAjy9fzVPvY5+v7wDNnO9yPtlPFLP071DFAY9tjGlPVxiuj3b4Yq88/l+vZZrB74WGb69L3Rnva5azz2D6Nm95Sx+PLf1FT1JY+e8X9V+vdRVgL3ksvO8vRBNvaXehr1is0I8Uo5LvefDqjwKI0W8cTMLvj9KgD4A2AA+Jw88PoOxGD6MTLU9I3zrvS7ASj7Nhrc97BFCvgFFLb4KID8+H9iPuyHB/T08PxQ+p7A8PYUpBDyrxps+mcG+vDb9ar7mNKK9aCNkPlkBhjwORxg+WqTSPfVq0T1cLHq9W7wxPk2MwTz6QOG94XjVPW6bhr6xK9u9w/w6voA3mb4BtBG9og9wPuSD4T0/cZy6HzrwvURPHr0dYqy+kGqbvsPBNL5WiOq9xFSEvGgCiD6h/tU9yRgVvp7Fgb0B3eY9PB4Pvv3mGL2XFRa9NvgMvk30CL0tW309ouSZPAvqDbxdWRM9WH/ZO/ypPr7dO4i9jKDqvXQWvr0DttO8wCGvPSb1fL2lfYi9FUhbPfJCxL3srtG9wzFovDQJybwk9gk9EM+avc4w4TwwzXQ8kYKVvD2nuz0KduI78Q45vmStQ7494tG8LDOPvSGOrz37zJo9CKV2PXDiEL5UfpG9OmEUvYinTz6euh8+YzRGPmmSkD5AQkQ+ebxJvsMq+ru/Adi86CxQPQ3+F77O5vQ9WpsOPtIPTj6AGow+qiktPZ+hK76Br5S9iX3VPTctAD4RVrk8LndvPGw6mzyo8oK7X+spPoB7gz2K8xy93pIUPejiCL1L66C7uTFlPkoqgz30p7Q+Ac7evWPUF77Fdf29kVF3vhEhuL5A2LI+/JiZPkzBYT5+dia+cEdFPnK+kb7Uf4y+w7WPvuBJIL6A+vy+9wG3PsD6+D6EYJ4+cWEqvq/ypj33Q6y+pg58vty8XL6fYGm9srLXvlZeWj4EZJs+VXmpPQ5Es70xi6O9yyqNvjgFUb7hjze9ulO4PZqbuL02Dbu7sxe0PVOGuT0IK1u+HEVxvsgZc74S/De+Anf3vV4VWj7YXRS+phSIvRiw9D1cli48Ijm5vQH0q70aWwi+jcLkvbFQWLyrewA+Fz6bPBB3mL0RSL29Kcv4vQkFcr2iATG+ba9Zu4yZPj3fmec8nAHvPSn6DT4C/VS+VwhOvn0MJb4dr0I9kDU3vi8IAD4PjiI+iI8hPolQwD1Fe5E+Zyd2vrJfsL6U9nu+ludlPjB55725sEU+n9tWPpGeYj4Lh7o9k5LyPheWgL4DzM++Jo0rvaciDr64g6G+KRS7vXReEj3VSFi7KHCzPv5FMj7G4qy++hZhvlapTb0mfFg90hCEvuKzIz4ZZkk+gV77PVyDVT6fRYk+tgOYvgjpsr4PKTe+Ikw0Ps1fGL7L3C8+Y5NhPswiNj5Vs9E9L9GxPuiOdL6XZdG+ZO6pvRFkVL1QvEq+ITZ1vE4wOD0s4Lw8JlwtPqi+gT3drRC+SIkXvjeclL0th9Q9dkZgvrN1hj6TyRU+GA85Ptj0Yz7siTQ+2K54vv0SkL4QBv+9XA1DPm5u673wK5M+06JTPoOS2T0p4aC78nigPijy773cGoi+sW+2vWq0wL0af0m+FNQ6PihAVT2X2DU9LhMzPkqEoT1w+kS+CCjMveyZPr6rF8S8XsV7vi3GrD6sYBQ+tI5OPi5uLz4efW4+WmZhvkAdgr5X2EC+oEAQPuzSwr0Iz8I+EV1qPvtWMz5GLmU8HBS9PrGkXr4Rdbi+wNIgvsJ5JL6LOqM8cQ7fvM4Str3IEOE9w2A0PVdIP71py4S+WpjyPAmffL2i6A6+bfAAviSGyDwIhca8rjvAPQcnoruJAh++x359vplB4TzuSrC9NpRZvRKrR7v34vk9iTC4PAaaqz1rIIq9ngymPLxgCr6Qk8a9XUhrvqqBrbxEBtk9ZBCDvdpANb2AtcA9icUyviAu1b3RFyO+wkdRPIzu1bztwji+Qq83PgAA670zkDO+fyC8u/kA6r1NUYm+jVYYvTXOhj75ORu8B89uvj4E3D3Xtw2+Mdyuva2Exb0Ni469P15jvkCcPL2GrBE+6WIhvnxhtb3/ZHy+tVNVvWTTjLwUocs8ATgpPvMs+D1VXoi+85ymvZYCSb7nkL29jlmfvQq7PL2izQy9NimUvJRk3T2ABZM8QME6vutxCb1qxN+9XyWRvsS8Hb75jxO+vtAIvoNnMr3Sey8+f3Pqu8IH471fjzA9MtI8PmuRC70rF6I9itLuvLuZn72a0f29h90TvaZ4D74ZEbk+d8BAPtLmpT2K4Hk9Y/1LPlghfT278ps9nHCxvX9hQb4k5xC+56qWPtcZcT6hvQc+zMhMvXIT4j1GB1G9T+AivRVS6L3LJKe99xYVvnSynz6jURE+rPmOvGJHCDvP1bK9Q3okvcGNab06t7+8EmPwPePWUz6DCYk9QV8GvuMMVr1mHdu9m7tFvmtVLL1s+6Y8NokPvaBxGD5xhoY+OFnsvbtper4E4do8tybkvIxw+DlxA7y8jxKZPUGHZTsczty9QonaPTmjqz1fUi6+VPU5vBLTyjuLq/S82esXPT7l5DxKr7Y8W6h2PKQBPj5MXMM77QHOvZ3nAr08pFG87VnXu0HEYj1Y2h29rTWgOk33Rz39oQ0+6g1gPMeb6L0y2Km84GyHPY9z+Tvyk9M9FSalPabTwzxyOf69FxslPtEYL7uKSG296TbTPAMqDT6ihpE9sHIIPlA3Vz06VDS7Qtj6vQmuUb1xEZc9D//fPX4f6DwWewo+ae2yPQsz7D3t68Q9XMsLPfnKQ73JauG7NDIJvRtLiz0AXmm9A6QXPAU7j7wo8ZU9mfajPAsZzzycO7c8CE7/u7bwj71zds48diTYPSd/8L2IlnC8864WvY6cqb0/a+S9BC3XPSW9Kb6k/Q89K1P5PZtTTj2SYDw7nk27PXMu4by604i9VRe4vUXzpL0A4+G9YmlVPl8XzD1vRHs95iG9vAguCz4cDY+9Sn3QvWAI3rwMz7y8psfDvRK3Kz4hZoU98CNLvfOWNb7bt9y992euvHC5sjzI//+8MjIrPuKpmT1YIo08szn9vW53tLvomLK81VTtPBA4AD0IzYc9DdE+PQtW+TxQIY49shWyPYOTGL4ujA69Om7bupLL5zxFVxA9G3oQPYrzFT211AO9Nbp2Pcwmmz2fvwa+l+C+vSBeML5+g4++AcazvWbIAz3DsNq8+rOCPhkj5z10cX++e73SvaoCH724Kni+xP2Pvt/2Ab7ahFW91tjDPb3AVz475vE90dE4voekrb1fwf+9Hak/vtE1gL5T2+e8R3cAPKysTT0gYWg+m2yHPb1ZG76ywSW9k6bRvOWbaL3VUYS669gfvZOoaD2nOn69Dd4RPOuMP7tTo469rCkXvb+KxDwiOYy7yCVwPLeIhTyWAUe8UBSQPSzXu70bgkO9rHHMPCkkMjwXNAO9Adk5PUgOsDtRhzI9esCVPWHOEr0TyOC8w79ePXbusb0WfxO9jX3aO4WGUb0f8Os9+i9FvG9CsbxNhhC+/9p8vVOyMr4IF+09aSjdPX64Wz7J+va8F/FSPn3hTb0KZTe++gcDPEJncb6bkTa+vp5EPv0KhD5OMOa7I0CUPZYCRD4FqtA9tUfzvDASAL6mBke+KqnOvUHIwz3WLOQ9q2FevYZePj23b/M9b3TKPDR7Dz0bf5+9Yq6rvcRVJb1l+pc9utjFPQMhdj2VtwG9f76QPXOJyrzar5y7/7eWPZfDQL0sLK+84PwlPVnQ9Lv3fXa9LKIHvgOcDL27+KC9iez8vLvii71BU4m7H42XO7xen7zVr0S7X1RXPbjWKr3FUdA9h87Svd3EQb2sk229jZrdvGvKSb1qwZM9GiiLPYHp0z0wZT2+XNPQPPuep72uF4a9f7pTPaILkby8iOW9i5vnPFekKz1i6PY7LZMXvjYlgL3aksi9SrDEvSx0FL4CNZE9FlDBvdjc1DyZ1bg8yve2vFrr8bzWcT+8i0QQOzosDz174qi8Z0nqvF/IND359DA8hZeQvCI4sj14kQ++KbgrvWaxj72bQAm9J8iuPZu40D2JSAA9koVlvYD6RbV6oTW9GPZMvr5Psr2NphW9mn6gvU91fbzTjA8+A+mjPB8ac71rDgq7jyS6vfx64L3Abte9ZLmbvelvED2TYXo9NSX+Pa7+4z1Rhji+uK5Bvp9joT1wWjq+8iYFvlXNPb3Um4w8zFwTPcZSFz7A2to9CBivvd3FrL2AZBa+26IQvqJ89r2JEWw8oIGQPfOj7ztlPyQ+neIGPt1h3L1k+hO+xy93PZ6A9L2q3JW9mg2HvBxFELZdU9m9QSCdPWw0Xb2b13k9F6B/vFkKwj1sELG73n4qO7QwRTwPARy9yLM7vTTBibzakT67THnkPY2PVD0jiaK9AZxWPQWZFz2Rs9g9AnRlPKueyTzdjrW9bAGRPBSlFj7irYe9UMU3PrS/eL3gtw4+IlD2vY5RGb7prDe+czyKvWj9Yr4PDyk+999yPi84Zz572lW810ctvVVNJ76Y+2u+sLIbvntHjL2vjl2+BngNPhFlgz6m1jU9ovChvWkjY7yydhS+hLOmvX1PDL7qsxU7KKUxvpLitT2Lras9JeKgvZKhWz4/Dvk9lunfPdTSMT7Rdl89N5Idvj0nOD7rTRs+KfadvRoZwb2ZllY+Eg4CvaxO3D0vCgM+ecR5PKqJVTwQGiw+pQABvZkd/70aD6W9GYcHPpxxPD2UQIY9X5jkPaQD6jx+yA+9Lbs9PgZW/byBSDO+KWHMvBHG8j0EaZ09H6qtPQUVLrwWNqo9KUtmu0YAdz4TnfU8CcNAvlVDIr4BYwC9aEsOvtOaED3tHgg+BKPHPVXfET7HYZ8+nIjxvUf3YL4ACNC8uIS+Pe2xrj0x5dQ9KpKMPdpZQj1yORS9CLrvPaHLmz1GTuC92TMpPtnrkr6juwC+7HnIvj6iwb4teQW+/BQfPmVdb724Xtk8mXssPf7QmD2jOba+EJlAvksPm74xAi++kaRavjawWD76RRi96s/QPbZY9z0hW2c+YNeFvlZnmL2yd42+G9FfvjCDF76Uka49xh8PvmWh0z1UwiA+OXqZvePboD1aHl49/QMZuiUuij1ykss9I4Wau6hUrD3oR++9ztWnPAIXHL68YxM6sxxbvdNhrD0rqRU+bC9uPEVmdL3FbJa5n1OzvWCcFT19g8Y8ow58vcxaL77emcu99cKxPSDbrj1OH+g9MLGzPTeZ1b2glU69npVNPeVAeT6E50A+JDYSPi9LMz4e4uI8u7kQvi653r2pKqE81xlsPRECtb3RExI+HYMPPio7Iz6dXIA+BmIou17fIr5F/UG+imgoPl3B3z0WfZk9jt8YveK5jTw+UCs7kY+jPcEktz2IRPy9/VzYvfEPiT1ASRc9n/SFPnqQEz48qb4+jyK9vf2Gr71O316+2xmjvmog8r5O354+xmSwPjAwZz79nd69o2iBPtxiEr40KSe+vxiAvk68HL7JAiS/wWisPh5hCD9f5Lk+l4+CvfPzBj7udVq+ahJVvnEJab7qOrm9+uH0vjThqD6Fn7k+WG4sPkQUHbxIWps+K34Nvu0yPb4jKKK9AUlBvseupL5hQX0+L/imPueAOz7nE2C+sNizPb8HPb5WDoq+EzBTvgrwjbxUeA2/V76BPj6N0j5z9xM+WJ/EvWfJzz2enjO+otNrvuN6X71Ybw29SaqSvvss9z1GgFw+sQY+PRlCzjtGst0981H7vUG54705Yo26K3MbPMd6IL4LZqS9s8PyPQ/lOD5kcT6+m9jHvZU+9L12Z4K+N+USvu/ktj0nRLy+2+ZiPbXMgT5Zco092fRqvfoua737yB+9VOWVvcokO70Gxek91QsBvlLvWjoiN809DySmPPS/pz0WlTg+BgyFPVUnir3rIem8Ee0Rvi8rSL4+2zk8WWimPagEST4c+Ay+peAsvVx4pb1gczW+u94HviLXMT0MIa6+B23hPQlgjz7TRV49O3H1vBaW/LtsiBy8LN2fveA+hL0tKpc8gP/0vTvs1T0vBBk9jnLMPRyGyLwjtYk+FN1wu0fIP753WA++ldhYvk19jb4mGAk+9kF3PuGUjT7dClu+BiW7PfKxSL4Lf6C+T75Vvq65h73tRgi/4Pd9Ph0R6z7A6SY+aKcjvjJCYjzyCDy+odODvkFKB77PVug8sa+mvkhCIT4kWow+fmEhPdSeEb3M9z8+dYFAvY61Gr4kT4a9HB03vh5smr67ggk9SB86PuL52D0H9Vy+OPAyPeoLeb71+Ii+LDUkvhCHbb2yPe++++33PWbx5T4rj8s9f0xXvjwYR70S0mO+foiEvttWA74d0qg8L7zHvrvysj14lY0+L/jHvbtuebzSviq+yXQDPbafMb0Enc08eIjzPSfrjz2QEXq+cYebvfk7RL7WV7u9QgHUvUf93bw12BM9dkWavFuNjD0MppC9ao5hvpkuIT1dZKS8S6Izvvs/Qb7L5/W9REncvRRnMDsBQCI+90MmvQz+872FEwU8cm6SPTp0gr2Ao4i9KElPvZnsB74hZTK9I0nwPbfXpL2agqk9QIW7PbEOfjyTChS9tOoiPAPdirzH0j2877+TvUKIBz1uOhy+Nb0OPqEcFD4biS09rNIdvnnbs70cWbm9S2GwvWZi5LyCcTk+Wo9jvSXp4TyATdk9aLzQPWg4Wz5gOGQ+qVO9PX1AB7qKXXK9KZgEvmPfAD47AG0+Rmj2vb2g7TxmiRY+p8UWPmoVHj53lO09/dLjPOwgK76benE9punkPbGHAr4hfbk9EQqsPUASbT6f0IE9QYzEPSORw7sy+26+dF+KPaf0Lj7RMUK9rC6PPTXBL76mARS+BRgWvvyEMb4Ypoi9HwkYPhsPtD26fBy9wADPvWfpBj0rTgq+eiMyvs8GGr6p+22+Jdkgvk8ODD5zQG09aD+xvedRvL0kJ6o9Kph/u3bM7jzds1i9fc6zvKGOzL3kSBq+jK+tvIF5kT22nfa8wEqyvbeTaj4J4Fw+qtJgPvwpQT4Rt4U9b70avh/IUj4gxN88kJ2yvROTQ71UeVg+8DnRPXIebj65A9k93XWAPbyPC75TQyE+s60cPXrk370PP+68nCIiPrcPoz1flr89Q9K1PcxWRj1qOZy9bw0QPuxohL0Pzbu9+vCLPO/yPb2PaKQ6eCdIPd5WXLyfyD293YgHPdB8Gb5NQuI9w1FYPgzIlTyW8gy9InmdPN+aBD1kT8a8ljCbvTkN0bz+4Cy+Vmu0PS/TJD5+Wgk9cjWOvQgEhb2CTem8N6mOvaRCUL364YQ8ZunovehRwzxGMBo+zlZtPSQnYL6eQCC+Unk9vi084b3EcrW9/dOSPkZmDL4T+Io9W03QPUtvhj1sh9+96zxdvZZqn72DFAq+XkCevXr7hz03sPS9MSs5Pkxg3z0K4VI95Z42vV0G2j3tTfS9It1IvYhXXL3OKHS95G3SvbjWGT5uzS485j/NvcKHSL6AyVa+ELTLvUY5srwYB0k9JDxiPvbEGz75GO+9josivqEfQju5nDW+AZYpvlJEa7x0xwO91Za7PNADPz6bbuM9I/VovSLBSb741u69HIMtvoeor7yFCTw9Rj5CPdAH7rrhM/k9/XPKPak8D730pK+9LEAvvtalpr3V4ra9Zod5PErYYz2mIA88KvIuPbj8rD38/NC9aePlvVljU71M7dG96A0PvkUqnD0PIae7+5vqPa2CpD1HMwQ+lSlAvnqhk70lXQC+OdvXvZ30ML7lvmM9fNDcPYS0cj2rgOk9/gaKPU79Kb5cTMm9zjiEvcYmGb3vn0w8svXJvFbTdzy9eGq9j4ptvVKYBbv8t4A8gwHmPMsL9D2F6dy9KaD6PK17BrxToMm91+qvPShO1r2byya9kh9wPbMJuD1FKDq9dwIzPCU9rz3vQIc9mAuePbgF0Lr61gK+Se2bvdnbH7xgKjo9kKyJPZVr5b2EbnC7mwCMvVGelL0KAze9PsQZPXHf6L0isyY9t+8NPrC9Gj64APO9VC7nPX30o72LShK+PXmOPPj99L2gDjK+qz3dPerXBz6yfw08cP0JPT69BD6ZU5A7ZFo3vVtC171ThRu+g/SPvWk8Kj3grvo90qGvvBJlGr0dNwa91UWmPCw0zjs7W5W8OckcPf6uh7zyyp29gsGFPD5R0z093Re+6e2Dvf4427zciMW6hrO5PXCCuT3m9gm9Jxe7vCenJj1/q7O9mOGavdB3Nb2d4KW75weYvH9jMr0UCp09+piBvdKSVL1Yv7y7/gmpvAJ7n71wrc48TsClvarTWr0UlIS9idcsPepb6b3vnUc895zPPZt7HD7v38O9J3ZUPQVbJr3qNZy9hAf9uyKfFL3Q3nu9CYbSPWTItT3JUxe7SREHvtBDyDxxmcq9ivuUuqPUIr3CA3w9ARi1vX80vzzb37Y9D/JsPBarmb1o4f27PHnbvDg/h70yNBa8eHfjvHjcNb38GxY9CgGLPWB6Aj4PA+m9Y8MRvfcaHL1wIua9heuBPGBiLj15xwE8CSwKPdr3gz0rFV48AvUivtT6/732rY696syJvWKkDL6rNCw+6ILqvSoylLj+vc89izSdvcLc173kHOG9/r2/u8GcWTzecDS99BQ2Pimv3z1TYem9jS0EvmyiID0IxzG+NzQGvgH5Wr356Oa9VJtPPerJIT7kyzk9WSesvX6ABb74AUi90M2Dvt8jc75dfqO9vnCkvbCudjulsF4+mpPBPAZ0/70dUcC9GuezPCOxs71Ei+m9OAKku47TZz0YH6Q772cDPjPHgz1urCe9fz6PvV8Kkj03+Dy9x8Euvc9f1jzG2IC9ps0tulYMWD2GbqI9gamAPPsUSr1ZbI+9DYy+vNpdRbs2Ff48+E7Pu7EkfzveVPI86bWUPTl7mzwQ5Ja9km7fPboDn7wRNw8+HvcaPIW9kL1kkY+9eUvKvcNFHr5lusI9X3o6PuAeMT5a3UQ7R+/YPeiom71aX5i93fIWvo2tJb7kTv69CEwqPiNfHj764aw9UYicPBacjj3YH0Q7PCrfveFQG74ZFFm98ibVvf/GKD5XKvw91xG4PeMQkD05FhI+BySwPOEf/bz0Oh693U7ZvAMoE74vXb49Umy5PdxKqj13pae8o5evvXk61L0mbsG8KPQGvvMgy7wV9Ou9IU3EPZGDsz3//Yw98mK4OzPjgbzQ18e989eHvRbvSL0a6/c8yXHfvKI/pT0MYsu894nlvW1lsj6dKK8+LYh6PhjFbj41+NU9472JvnRWBj4V/D8+dAzlvXUHxb2/Lc0+56EyPpqNHD7ZlUo+xLuKPUAtHL5SFS4+ZufcPecE5L2183K9G4atPkUROT7TLUs+6O5GPoL3Iz5li1u+d8sLPtEFlTxZAM69lvW3vei3Gz6+LK89nOCEPaDL3r2USYc9vxIDPSPkmz5aK4Y9YQtrvnuqNr52Clw9pG3VvV3JZj0ww4M92aPsvMzd+j3K6Ik+K+9lvYrRKL4AEXk9zf/GPX/YRT2OQlQ9GGZkPd0Yez1aMAm+XGLjPerUZD0Vu2G9ap5tPQSbxL1GELY9HiUVvj9xIb4Xyv6802Wgu1ymDD6AVRU+6klMvEKPVrzZZgG+oxAHvreS6L0i0i+9t8LCvUevsj3BcQo9mQ7PvCiUKr1s7VI+lykNvm2hFLx4Z06+oqOjvWcesL2lVQQ9At5gvVQGEj1RDzw9ClMAPSNfn70wZVU9+JRevdOv4rw2qk09rQhgPPYrjL3nZka99wVkPeFZSL0E7429SS0SvSe9wTzPvPI9pyCevalYP7t+RqW9mgujvU19Fj6/yRI+HMO5vQ15LL4I6HS8niiQPKWSSj2ATpo9BNjjPLzKU73aUgc9uQWJvd/oBD6SD+A9GSZOPqcoZT7POl4+KADlvVkSGDxbOvq9Js+CvCDyAL4krw09tw/2vB0SdD4C63E+eueOPYJ3w700KCC9/Aslvo7iJD0XGis9WVhVPLZyLb45Yo09/TjMPde+Qz6wpkU9bJRUvLzV7L0VSYi9Bfx9PWt8TT63BYg+/CJxPptLIz4OTgs+DTSrvgEVb74OPZ+9Pcv+PVVkMr3cxiI8oG25PcJ6Wj58XlA+2jiRPZYaWr4ToFi+ffYCO5OdFj7HE4E9oOJgO6WdADsTTJ896s+ePJK/wj0S6N461Ugfvlt2lzzSwkQ97EMFPgFlRz5/nL4+HvkzProQiz3XoS89iO7NvvfTjL5yStQ8wpFmPhys+D02IRa9xao9Pk/0Lj5/ysE9uYxcvdUveL4oEb6+pRCkPHR0rT6tJk8+Z7VxvdbioTudZ/Q8slS7vVLX2bwrpJ+9j1GWvtQYlj3Q/jQ+MNkbPZYBJD6tWoQ+MvoMPik+KT06fg89mrmHvtQzUr4LDzc8U3xJPn3+yzy+ToO9pEvUPOWLkj0itMI7HDhYvQ09u72HTaO+d2GRvKxghD57WMQ9yv/UvbZdx71xgXi96q/NvbnssL2t9TA8qXUkvslT0zzAlE8+faCmPNXfpL1zKj29ArsKvUUvXb2kkzw9TVDXOhAELr5bsHq+e4zOPWnekL2tby++juJOvqquHr1y3rS88PngvAKp/D1Kvxu+HJMGviaXFT4twE49hO3jvTDyUb4sUny963dtvUefL7z2Tic+j5PpvQrDDL76lOk91L1SPHt9/rz8yja+YC/qvH2GFr2mQW+8fd4EPqGj87zNqoq+j6oUPVQd971w2hm+SMNWvjeI7LzsDmE8GA93PXm8kj4M+4C8Mftrvtr8AD1KxbK9vMIlvlFxmb58zKO9eeBNvYtDsz2cvJQ+hrHBO7NONb5nbJ69mKODPR5RIj4B7HA+lueWPZjEmT3DC1c8Ao/XvZRP8b2MuT4+WSgTPsLJcz2jMgQ+5KlGPvZKEz6AgKk9HsdwvSfK9b1YXye+2gtrPlD0Aj4Xol09ULsDPTGAsLxxi6M8092vPRYjOzs9JN68xgcaPbqwHj5wiea8tfi/PcFwjz6ANIs+POkVPrqb9z02nD87vDWmvky/Oj0vI5k+jledvWni1zysvYY+R6CAPjscIj6+lws+X8CgPKnNa74Di7o95SREPt+cy72mFyo9Rvo2PlHdgT5xZ4Q9y8jLPW8Snj1Cf4S+ZYqgPS/wYj6M9ti9v8XBPU9OkL3+OKC8HBLQvZuw9r1i6lU8QRFoPWINST0/abu8tKmKvV8UXT1jZ3e869QNvrkNDr6DYxa+4U8AvjC+1z0aUJ893wATvnikHL5YyM496VT5Pf+/Aj4j5Ry9VbRtvQOR9rwSQ+C9WL3VujOlGjyoqhi9TqSEvTRehj62uYg+ym9+PipTUj48sak96bl1vryeiD5ra0Q9kb/uvQN7X71hJac+UANpPnhqUj7xAh8+LK8QPYOiTr68SEg+d4fZPBzZtL2pqai9+y+EPptJET4wXz8+eOsoPh0stjzJd1e+3FrePWBNQD1jz669k3rnvPuX7D1bHCk+Hr0sPqFBvD0oJ4g9fGTbvahMur1fdMQ9WWGHPWgNRr0q25I9ZuRRPaFdqD0Hl5Y8BXQNvBesob1JXae9SReqPXh8pT0mfBI9hfcWPfn3ur0Ljzy8Ye2dvYcuhL2kRbw7OV1uvfP2gr2vJ9g9d4SWPekc5b2pOYK9q8UEvj4nfb35Q5y9eux8PRd1Hr59o/88+SjDPc2C9jxJd5W5pOhGPfPDYr2DH1+9ocCQvJ0JMz3VRhK+WPfwPVdXJT3EipQ9v6lNvQXVvz1fdTW8xhntvG1JVr2Qjp68A5ZFvQdIAj4XjGs93uLnuxkuIr6pT8+9yTr8vS+tm7314ou8tFfqPUFuuj2XkTK926aivZWacb0ilzu9Wr7DvLw/yjyMzB89Zh0AvY+eILztDY099mFvPNlJ6b01xr69JXcMvVeOHT64GJA8psgpPVuAkjwIBq29CUy+PR+bhT3VjLK906nJvfWXAL6pSBq+dxbsvbvyR70djcW6d0JTPssmPT6DRzq+ickbvvpek71ej1K+4gFQvp2rsb2HlRG9ioufPTi0bz6fgwo+pvwzvnx8Pr6LOr29F2Zkvt5pP75yk+q5x+EePbKgSrtukGA+JrfUPWpxJb4kq/m9mWcJvjlM5TzQ33s9k1IBPdqQuz1LoNA8+6d6vRBHET77uIe978zRvQSEKTrO3kK81tFnPe30rT249a89FFYTPmfSeL2oRoQ9T7CyvfqRib2Uoe69DKbMvTNYo70HNl49/5CXPeTseT32cTK9mzT6PAJTHr483m69q3yfvEqvzLwtp8Y90GqcPMHtLb2MCV+9UZ18vZxSrb26UpU9XADFPNdCbT0+PzW9TjnrPXmEHz1VET+9NDS6PB/4DL45LeS9kawjPnV2GT7bRVm9aLcmu3et6z2ZlKA9W34jPeJrNbzyaCe+mjqrvaE6pz3+Sdg9O5oovRmPOLzh5Z89fnE6PSS3Cz0dWDW9pBq5vGZq1L3K3bw9NIUpPEvU9D2JxC69T1igPSgqeLxRzxG9ylrSPEQIE75lHuy9wXAGPrF0zD2HpaW8CetEPTzBHj5V1RY92SjePCtdJr1CjB++Qz2BvYVBfzxVA9A82/IOvcutGL0uW0c9ct+MPZ764j1DQuk8u3fIPHBIDT0B3o+9w+ALvTkmBj3l1Im95fbiOvhuST0duW48X0aUPV4zYTxIxjw9qLLqPJ+1Kr1Cw+O9tQa3vbgVEj2cc+48eGmfPcFRtrzTq/g7OyRYvaOHETzvqCI9m7c4vWtInzyhofg9Jb5rPALUQ7zcLkK94LuHvOgeGTsUmB292fFYPPlEET3hcjy9dQzCPWkmsrr/HuS8+8DaPAszV70lf1O9uV5sPfw4FD35U0S9W9vGvLiY8DxSzSg9lb2lPC9xfb2MF6K9Mu2AveXeXLxhWny7EUg/vYeeHr0Hz5I9pSbKOoJXL7wTkVu93DDGvbzk47zhZrU9d/9ZPXCzAT7rU4u98uaAPQvhnLzot1u9bTHaO9l5gLzxN9u9zL8lPhbVGD3jzss7IgAbvjP9Brz3xxi9YAW3vS2QL71F97a8MQbVvUFkfzyhBuE9T0BFvH7OXr1Vf6G85KT8O8f/Ub2jFwS9S1eHOzz1OT1ji8Q88FVOvZ/wQj31EzS+V4nFu1cm37zzRA696r0mPc3+iDxEOd+8rsY+PW+2Iz0iNR69AoQzvgRnBL506P6873KYvBwSQL2yRk0+BpKDu+91Bb2xKzM9IjBKvS2vG77Jf2y+D+iGvd4RHr36Ja87FCJ/Puca4j172zK+X7/5vfpAczw2+Ym+2T1yvgsM3732VHu9xu8wvfbJmD68vdk9hc+rvb+gO706ep29cYR3vmDYdr6165S9il6AvUn8qL3nHYc+1jEkPRCYqb1a07O9abFAvbd2yL0B2Bq+L0xcOygREb3i+7G9EcASPsEZQ71bmZG9QLaVvWfX0z3f+Mk82gh0u+bqkT3sCfg8tTuovaq6Db2ycZ68X7brPYJ1ybvNhMe7LTnzO20sFL2lPa89K+WDPaqRA7wkTkG8dmI1Pbdwcj1GT5a9YANXPs8Dx733kuE8I3gJvnqbB77AgjC+eeKUvbitnb7Px+497Io9Pp3SUT66RuO8e589PCmX9L2rzCy+JrFxvmg787tkIZy+JvpaPqkxgj6lMhg+JdbzvZ7g0r0JQBi+sVRCvs8VIb4FmlS8vMp7vgbnFj6lDGI+F143u/Bfdj4RFjs+VJ3kPSuBIj6gUbs8pI4bvqBsuLzqZo89G4E3veOIhTz9VFM+tzypPUAsoDz/ocA9/oyyO8I4Ar474Zo9n6c1PS/7yDzwg7g8QLEVPpVo4zs8xKy8Brf8PEZ6Gb12koA64ElJPYBbZLwXl2y9gwc4vgyusD482ZQ+HuOLPtjVjT66llw+cUNlvurpoj4beHY9Mi4ZvvqRYb4T2bs+8L8RPrFlVz5iSGk+U+O7PcS0Bb7P+JA+7l2tvXtQfL7j49u95seuPhOKoT1AJFc+D+4ZPir2KD4VHTa+oXCaPl9ggL1ZEoa+i3HwvLyiIT4irHg+YApjvLkP2r2l3hw9v+OWvd10PT6DVh4+ixoTvr3ADb7cPYs9M9wsvQlLlT2GtYs9PvMZvFEtnD38AIo+C0EFvruLY74EmMI98Bs3Pvaz8j1SltA9tjMRuxIo7bw55fO9dq4kPSRZDz34To29Tx6avdYIb73/vUi9CfQEvvvS373ur6Y8oywePpbmjj7clfE7Y0w5voP+h77Cmem91a+evvSaKr1XMMI7QvDqPLnrlD7oi6E+kaaMvog3or7Y6m28bwSIvJie8L006rK7RoD7O5V2Uz0McQQ+FMEDPvnR4b0PNk++JZPNPKWGDr610429GZVBvtXFTb464iA79qt4Pl88rD0hAYW8T/7xOvYp0r26gVC+/vyZvjPZnL34XeY811tDvYnKeT5CRuk97iA3viCBAL42lbc9joI8vt/7K76I2qu9i2O5veaKIru7gGo+HBK6PcVj2r1uzrm9tQ44Pezbzr3SmaG9DUXZvc6QE76eDhg8dilUPrg4Yb03RFu+IqYxPadRHL5d0i2+jmBTvuNQhb0/6mI9JiXnvH3gMT7cYqk9ZCRkvnfxFLyfQr49FDlFvuxSdb7lQMS8+uywvG7dkD1oI4k+eJiEPQk0gb7FsQy+bIi6PewWjDw/uRk8hTygvFBaTr1PJQ4+rXRqPXvNWb0GfuG9fU18OqVAyb0oVgG8/F+pvVavzz04ygQ+yE6GPMH8cj1MuGo9wds2vuX8RTxYB429jx/YvQGCjL6QI5E8F8QNPMe4rT2fh28+m+ItPiG6c75FIVG+LiHhPUi8pj0SKao9sDFlvR09XTyPGho9nM3gvVHO2r2IK2a9/VAIPWUxBr4csDc9hWtBPVSsyj1RUMI9IMltvNwJjbt/FT09cBePvTuzuzkas6W9vxo/vebKA76nTYI9ilFjPSQ07D1CMRQ+Zc4VPgPHJb4qhhS+QiTcPYTVNj60G1g+oGWCPTjZpDuDS0C7y6MvvhtMu71gFYE+kiGTPT9COLz6WhY+5vk/Pvvp+j1PUfc9c+yfvZ4JU76rKKK8MhGCPnmdJj0R5XM9f96yPW+AbTuJ07A9sf28PTDTmz3LkpC9HcEKPtquVT3wWAK+Dwg5PoM7AD61nqE+LNSWu+/WYD3s9Xm9dVw6vkPlM70SAuM+ejv2PdKdvjza7AY+obswPrVg9j2HZU4+4ERhvOu7UL5+95Q7ljq1Pk0kt7tWPQ09yWqwPY0z0j0wgAg+O1poPV9NcTtk5f69sG5vPUfUMD6yZuS9W31APWIeOz15bw88CotIvSkVpT2+d0C8oWb2PNr+lT2eoNw96DeUvRKjqr3uWfU8dLgCvou+GD18JLM9LHKwvAE9PD5hPnM+VgSRvTzGXL41iNM7mI2zPWORoj33Lvy4WTvNPWD0vT1ycri9gWAnPjkjxD3Atkm+WqEJPWxonLyceiW9S1oyvXXYYDuWWYY9mBruPc6Z1D3GBOG99jb6vS2n+7wR/Hi8UQI6vn2n+r1tAI69z7S3vaU9Uj7ywFY+tkxovk0mSL6m9dY8kYD2PKn18Tye84U7j8KlPOT3nLvVACO93OAYPrRxTr39zTu+evkIvFefIz6vRxI+fzVvPlRd6j215Nw9zBQsvrzSRz70s369TQ/FvQDqTL2Tf1E+brTZPR/YXj49dB4+bvlKPFx/r70AZxo+qRHsvStwK77IG4a9m/M3PkcXcD0HGPE9HA4LPoFDiT3Sv9q9ZpxaPrpZ4b3OPne+H2iBPb2fuD3TSiw+SSMSPt62ZT306SA9erIVvqf887yk0wg+kkIYvBWawLyejTU+QRT3PcVGJT5M4eI8FzeGvYN2Hr1gXi89EbqUPdfNyTsusZQ8QgM+PeaBxTopKQc8928+vB40Hr2E3W88vWo5PLQJCzwEVdk7W7D6PfpIxr2tYGk8/1U+vR4Dfb1RUdm9gYGhPXSTcr6HEM09NCxUPs14nT2K2Qq9KL+kPGB0P71jfQm+PmYJvjyRsTtswD++Aii1PYPTTj7t7nw94C01viRcEL2H7B2+Cdb3vdU3wL3j0tw9b4hMvpp8KD1Fcq89c6kWPdNxHb73PpO9P8FhvWa19b0T2IK9Rm0HPnKlGb1r6Fo9jhPlPEHudbzP7Vm9ie2LPe95UTzwMzI9W3rQvK+8IL2me9G8rDxSPkSLqTqy1sQ8KHmRPBOb8T1F40+9qgNTPCoiIT14zJO98aS6vQsnGD713e28uuJHvuWlmTzRrb+9D/+gvCdFkTxg3Z49e9kwPn4pLT5EGum9A6Apvguzz70BsL292Y/uvR8Ctzxbu7E9FPhkPSgk2j2lijk+s9DIvZenZb5y3Bu+X1CyvVys5b1xwLW8MM6APaqqQj0Ttdo9ANIjPl/5y70lrzS+OrlDvh852Twcc7Y9gFnbPYJwyD3Xz089kOetvDi2Dz5/Lqq9L54ZvosaML0gFY69YwnJvV2h1jyeAfw7QQP1PcYFPz09IR0+3HE9vgTaEr5AVwy+YzgovoV89L3i0HM9t8IpPYI29T2ARfY9UueZPR4GR756K5m9nvvqvUozvT2FVfw91vEIPRRjwT2Arpo8Sd3GvbgcCT30WSI9Pu+EvY+caD0S43C9A00MPqmxrT3WSas9cGZqPTKcrb1mhmw8YmuUO51UtLyl3Zu9Mpk7vWUrcD1Iu1Y9BYwAPhQrLj34NXu8+5sTPKXbhb3991u8nZe/vASriL2pa+08hfm6PL3YFzwp5dG8jRa5vVr6WL2wQog8ng2/PWSyeD3ktAa9Q7sYPuYx1LvlsVS9qiGGPdASFb7tzoy9lqAHPkV6pz04jhq9Dwmfvc/ERD08hW89Vi7UPA5AsrtxVYy9u+YdveEuND2T9EI95edPvdBzn73bFSS7qrsRuzwiQj28JaO8qLnXvFaQID122eQ8PwGFPT3BCT4m5bu9wZQ1PLxXD72Ajyq93JD+POr+cL1uNrq9NlVYPGZS0D2GAqC88TAevZc5gb1WNsA85QVCvAQPMjzR66+8mLVevTUlJrzgvzg92A5JvRoTrrwmiAI+JeWePcM01D3MhIk9prSFvWRbIz1APDu9nHCyOwltSz3xlew6j9ACPsMa3T2MUVU5U7EkPrarkL1K3ai7OD89vPVEYb1mv6m9oLjMPACoUT3hICA9c7U2Pau7xzxxcMe8ZRSgPGa5NT3j32O8Y4mcvZZmuzxa++c9QT2DPYKzbzxtS2y8/R/Hva4BGj3ROUa9C6fpvAaSkT2LABm8qE7GPUitSj1bH+g84MnSPUxe3b3C4iq9R/KrPQo8tbywfiO9oUTYPMNkkj15Puw9ivLCPcatzryW4Zm93g69PBoApzxpFQC9MyDLvK+Z6bsFtJ09gPpaPUOnSLqdI8g8PqDDvQr0OL1cuWA7k12nPV/+Zzz6s/47lt8ePq0+M7v8u6U89oq+PEL0pb3+6km9tP7XPYcjeD0zYq67k/+1vFtuoj3bWJ87bGk6Pf9aB70Ic8+9l2sZvRLWyj03yrU8UnVQvdGFIj08+fU99WXAvPc1Cz1Aon+945OXvYvF47wD7hI9TFR6PWOupT0YXoi9NcXvPTgfIL2kNq+9l3LBPLx28L1cqAC8RUREPb2StD06USY8h6EYvv42Xb3eSwO8OKmUvShosr1dkoQ9aiPZvTu2kLy/ej496A8qvXU6lL1v9J+9X6IsvVz6Fj3K40W9hcgxPVdEtT3purW9QxCqvQN14DyxYg6+5VXdvcZncbxqvba9iJFqPFCxqT1nFxQ9hx6HvXSfZzw0ijC9cVshvnIBab7oF8O9drwgu7TBpb3RrQc+c6gZPTRbIr7cufq8U3KhvSTdLr6xzWy+rSK0ve27KDvSS4s8sfl+PoqO+j2R2r69JabGvaEyC72kjfG9GcU6vmY7v7y1F6Q8/zkPPZaTED6NGws98Bc0vZVf/r01WZ+9pXE5vsuyML7XLhE9FAaru/9C0TzQ1z4+Js25PbyN7722dQW+wXMXvbJRAr5SV9y99TC4vRk3Ab2Nf3q9IGsJPvdyM72wrkm9/lNMPb839TxiLmO940eMve9g1byjMha9P1bLvTPQ8j3Lcx88D02APZpOEz0QjAG9E1uPvUFNMb1MLhU9C4C2vHPGZrzQkDw90KA0PcDLmD3veZS9q4AgPjgMg7zBsTE8q1ClvW/f/r2q2dK9zwAJvZ/kSb59kwI+ao4EPthQZT70kcS98I6VvMLX8r1opCS+rPJUviKa67vyjl6+K1gyPn60KT5Peg4+xBnVva0cbb2rHNe9LxUWvlNEGr6iP4Q8vXTxvbr/ET4U5gE+mfqTvLWbXj22hBA8ezfHPYWdDz7muII9vPIEvav0mD3qk8i9oDStvVJb3bwsKQA+fvVjvZcPxj2bsYc9LFLpPEw56zzyfwI+6XqBvRxba73IeaG8xeLkPU9LA75wxQM+rcujPYA8gzua7yE9MTsdPpk4NL3EKPm9XZxFvkXafj6poPE9u7hEPmyYUT7S0YQ+dw6FvYzwgD5zrhy+bl+OvmFEj77eu5M+g6elvPs5iT4NGqM+ux4wPtVxirwjJ8g+Fn58vtkzk76/ggO+YqOjPgL/Kj04oY8+/l+BPr6RaD6SHsO9vRybPrxna76uc66+/unYvdaNKj7MbiA+u8ZBPVw4Qj3dAiY+5v+HvQkVgz7SVhM8uY9gvm1+cb6wCoA+4FeAvBKoIT6gO0M+JsDGPRyKTjwH8s0+kmUAvrSkf776kkW95mJwPo0dUD00cTo+Hy8JPriVmT3FmvS9Nfc6Pqvk8TzI50e+Pt3wO8/ZbL0lk1s9XxJKvnx62b2C3oQ9BqBfPutYQD7/mzQ9PAglvi2JYr6tP/w7aHQAvnDOp70Vb049ohFtvbxTbD4G758+0SHdvQFYg75cen09e0RzPfk2AzyjFI69gigWvZn3+jzUHmE9avwCPvbPqj0pUBO+cNFgvbMr5ztm0HU9bFBfvv4pHr1cSs878+EVPjl3lT67c909gcdHvvVeJ75azre8sThLvk74T718aFQ+AlqdO1j6YT7NILg+oREDvpwEwL6z+/Q9MoJiPa2Clj2Sz/C8X/tiPC0vF7z/80I8ejMGPk+/Jj4KOMW956llPbTGTz3tLZY7JlYyvtqFHb1PzZ28pokXPu62Qj4iXfw9VfsWvnp0ab6NpAC9WWsTvkwVnTpPzFY+5jyPPaK/PT5noLk+24kuvhz6sb7jaiA+IcG8PY9KhjoQf/E73W1xPaWrOD1AfFa971gNPs6h1z2jIQa+A9tHPRCnVbxc6mm9Mmt2vsnc4LxuX0u9CcXnPUkEbD4Tink8oqlcvq5Chr7rhd68HUZcvh8Qr71tBfo9aQYoPWnvWj6dlLs+dCQ9viv